{
  "version": "1.0",
  "truncation": null,
  "padding": null,
  "added_tokens": [
    {
      "id": 0,
      "content": "[UNK]",
      "single_word": false,
      "lstrip": false,
      "rstrip": false,
      "normalized": false,
      "special": true
    },
    {
      "id": 1,
      "content": "[PAD]",
      "single_word": false,
      "lstrip": false,
      "rstrip": false,
      "normalized": false,
      "special": true
    },
    {
      "id": 2,
      "content": "[CLS]",
      "single_word": false,
      "lstrip": false,
      "rstrip": false,
      "normalized": false,
      "special": true
    },
    {
      "id": 3,
      "content": "[SEP]",
      "single_word": false,
      "lstrip": false,
      "rstrip": false,
      "normalized": false,
      "special": true
    },
    {
      "id": 4,
      "content": "[MASK]",
      "single_word": false,
      "lstrip": false,
      "rstrip": false,
      "normalized": false,
      "special": true
    }
  ],
  "normalizer": null,
  "pre_tokenizer": {
    "type": "Whitespace"
  },
  "post_processor": null,
  "decoder": null,
  "model": {
    "type": "WordPiece",
    "unk_token": "[UNK]",
    "continuing_subword_prefix": "##",
    "max_input_chars_per_word": 100,
    "vocab": {
      "[UNK]": 0,
      "[PAD]": 1,
      "[CLS]": 2,
      "[SEP]": 3,
      "[MASK]": 4,
      "!": 5,
      "\"": 6,
      "#": 7,
      "$": 8,
      "%": 9,
      "&": 10,
      "'": 11,
      "(": 12,
      ")": 13,
      "*": 14,
      "+": 15,
      ",": 16,
      "-": 17,
      ".": 18,
      "/": 19,
      "0": 20,
      "1": 21,
      "2": 22,
      "3": 23,
      "4": 24,
      "5": 25,
      "6": 26,
      "7": 27,
      "8": 28,
      "9": 29,
      ":": 30,
      ";": 31,
      "=": 32,
      ">": 33,
      "?": 34,
      "@": 35,
      "A": 36,
      "B": 37,
      "C": 38,
      "D": 39,
      "E": 40,
      "F": 41,
      "G": 42,
      "H": 43,
      "I": 44,
      "J": 45,
      "K": 46,
      "L": 47,
      "M": 48,
      "N": 49,
      "O": 50,
      "P": 51,
      "Q": 52,
      "R": 53,
      "S": 54,
      "T": 55,
      "U": 56,
      "V": 57,
      "W": 58,
      "X": 59,
      "Y": 60,
      "Z": 61,
      "[": 62,
      "]": 63,
      "_": 64,
      "`": 65,
      "a": 66,
      "b": 67,
      "c": 68,
      "d": 69,
      "e": 70,
      "f": 71,
      "g": 72,
      "h": 73,
      "i": 74,
      "j": 75,
      "k": 76,
      "l": 77,
      "m": 78,
      "n": 79,
      "o": 80,
      "p": 81,
      "q": 82,
      "r": 83,
      "s": 84,
      "t": 85,
      "u": 86,
      "v": 87,
      "w": 88,
      "x": 89,
      "y": 90,
      "z": 91,
      "": 92,
      "": 93,
      "": 94,
      "¡": 95,
      "£": 96,
      "¥": 97,
      "§": 98,
      "¨": 99,
      "­": 100,
      "°": 101,
      "±": 102,
      "´": 103,
      "·": 104,
      "¸": 105,
      "º": 106,
      "¼": 107,
      "À": 108,
      "Á": 109,
      "Ã": 110,
      "É": 111,
      "Î": 112,
      "Ô": 113,
      "Ö": 114,
      "Ú": 115,
      "Ü": 116,
      "à": 117,
      "á": 118,
      "â": 119,
      "ã": 120,
      "ä": 121,
      "å": 122,
      "æ": 123,
      "ç": 124,
      "è": 125,
      "é": 126,
      "ê": 127,
      "ë": 128,
      "ì": 129,
      "í": 130,
      "î": 131,
      "ï": 132,
      "ñ": 133,
      "ó": 134,
      "ô": 135,
      "õ": 136,
      "ö": 137,
      "ø": 138,
      "ú": 139,
      "û": 140,
      "ü": 141,
      "Ć": 142,
      "ć": 143,
      "Č": 144,
      "č": 145,
      "ę": 146,
      "ğ": 147,
      "İ": 148,
      "ı": 149,
      "ł": 150,
      "ń": 151,
      "ō": 152,
      "œ": 153,
      "ŕ": 154,
      "ř": 155,
      "ś": 156,
      "ş": 157,
      "š": 158,
      "ű": 159,
      "ž": 160,
      "˚": 161,
      "˝": 162,
      "Φ": 163,
      "Χ": 164,
      "β": 165,
      "о": 166,
      "р": 167,
      "ứ": 168,
      "‑": 169,
      "—": 170,
      "‘": 171,
      "‚": 172,
      "•": 173,
      "…": 174,
      "€": 175,
      "™": 176,
      "−": 177,
      "≤": 178,
      "●": 179,
      "": 180,
      "": 181,
      "": 182,
      "％": 183,
      "�": 184,
      "##h": 185,
      "##a": 186,
      "##t": 187,
      "##e": 188,
      "##v": 189,
      "##r": 190,
      "##i": 191,
      "##s": 192,
      "##y": 193,
      "##c": 194,
      "##l": 195,
      "##b": 196,
      "##o": 197,
      "##n": 198,
      "##k": 199,
      "##w": 200,
      "##d": 201,
      "##g": 202,
      "##\"": 203,
      "##x": 204,
      "##p": 205,
      "##U": 206,
      "##D": 207,
      "##I": 208,
      "##u": 209,
      "##f": 210,
      "##z": 211,
      "##m": 212,
      "##5": 213,
      "##0": 214,
      "##H": 215,
      "##C": 216,
      "##R": 217,
      "##8": 218,
      "##1": 219,
      "##6": 220,
      "##P": 221,
      "##T": 222,
      "##O": 223,
      "##W": 224,
      "##9": 225,
      "##4": 226,
      "##S": 227,
      "##q": 228,
      "##j": 229,
      "##í": 230,
      "##ó": 231,
      "##3": 232,
      "##ü": 233,
      "##7": 234,
      "##'": 235,
      "##)": 236,
      "##G": 237,
      "##E": 238,
      "##A": 239,
      "##_": 240,
      "##é": 241,
      "##N": 242,
      "##M": 243,
      "##ń": 244,
      "##V": 245,
      "##B": 246,
      "##L": 247,
      "##,": 248,
      "##2": 249,
      "##K": 250,
      "##.": 251,
      "##;": 252,
      "##Z": 253,
      "##Y": 254,
      "##-": 255,
      "##$": 256,
      "##º": 257,
      "##&": 258,
      "###": 259,
      "##ć": 260,
      "##ł": 261,
      "##F": 262,
      "##`": 263,
      "##ű": 264,
      "##á": 265,
      "##:": 266,
      "##ú": 267,
      "##€": 268,
      "##î": 269,
      "##?": 270,
      "##�": 271,
      "##ñ": 272,
      "##õ": 273,
      "##]": 274,
      "##": 275,
      "##ç": 276,
      "##…": 277,
      "##è": 278,
      "##Ô": 279,
      "##Q": 280,
      "##": 281,
      "##!": 282,
      "##ř": 283,
      "##X": 284,
      "##J": 285,
      "##ä": 286,
      "##ö": 287,
      "##[": 288,
      "##ę": 289,
      "##ø": 290,
      "##ï": 291,
      "##ã": 292,
      "##ı": 293,
      "##â": 294,
      "##č": 295,
      "##š": 296,
      "##ō": 297,
      "##(": 298,
      "##/": 299,
      "##—": 300,
      "##¡": 301,
      "##±": 302,
      "##‘": 303,
      "##ê": 304,
      "##ứ": 305,
      "##=": 306,
      "##ž": 307,
      "##ş": 308,
      "##å": 309,
      "##ë": 310,
      "##­": 311,
      "##ğ": 312,
      "##Ú": 313,
      "##@": 314,
      "##ŕ": 315,
      "##à": 316,
      "##р": 317,
      "##É": 318,
      "##Á": 319,
      "##û": 320,
      "##™": 321,
      "##%": 322,
      "##ô": 323,
      "##‑": 324,
      "##Ü": 325,
      "##ś": 326,
      "##ì": 327,
      "##Χ": 328,
      "##æ": 329,
      "##£": 330,
      "##Ã": 331,
      "##≤": 332,
      "##°": 333,
      "th": 334,
      "##er": 335,
      "the": 336,
      "##on": 337,
      "##in": 338,
      "##at": 339,
      "##es": 340,
      "##en": 341,
      "##an": 342,
      "##or": 343,
      "##ed": 344,
      "##al": 345,
      "in": 346,
      "##it": 347,
      "##nd": 348,
      "##ar": 349,
      "of": 350,
      "##ic": 351,
      "to": 352,
      "##ion": 353,
      "##is": 354,
      "##ing": 355,
      "##ou": 356,
      "and": 357,
      "##re": 358,
      "##om": 359,
      "##ent": 360,
      "##as": 361,
      "##il": 362,
      "##ec": 363,
      "##ro": 364,
      "##el": 365,
      "##st": 366,
      "##ut": 367,
      "##et": 368,
      "is": 369,
      "##ol": 370,
      "##ly": 371,
      "##ation": 372,
      "that": 373,
      "##le": 374,
      "##ve": 375,
      "##ur": 376,
      "##ot": 377,
      "for": 378,
      "be": 379,
      "re": 380,
      "##ce": 381,
      "##ver": 382,
      "##ts": 383,
      "Th": 384,
      "##ad": 385,
      "##ow": 386,
      "on": 387,
      "##id": 388,
      "wh": 389,
      "##ig": 390,
      "##tr": 391,
      "##ment": 392,
      "##ld": 393,
      "##ac": 394,
      "##se": 395,
      "##ir": 396,
      "##ter": 397,
      "##ies": 398,
      "##im": 399,
      "##th": 400,
      "con": 401,
      "de": 402,
      "##ul": 403,
      "as": 404,
      "##ess": 405,
      "##uc": 406,
      "##ith": 407,
      "##ill": 408,
      "pro": 409,
      "##us": 410,
      "st": 411,
      "##ers": 412,
      "##ate": 413,
      "The": 414,
      "##ay": 415,
      "##est": 416,
      "al": 417,
      "with": 418,
      "##am": 419,
      "an": 420,
      "are": 421,
      "##ity": 422,
      "cou": 423,
      "##ain": 424,
      "ex": 425,
      "##op": 426,
      "not": 427,
      "##ab": 428,
      "##em": 429,
      "##iv": 430,
      "ne": 431,
      "it": 432,
      "##ge": 433,
      "##ial": 434,
      "pr": 435,
      "##ore": 436,
      "##ere": 437,
      "##oc": 438,
      "##ect": 439,
      "com": 440,
      "##ap": 441,
      "by": 442,
      "##ave": 443,
      "##ia": 444,
      "##igh": 445,
      "--": 446,
      "##ak": 447,
      "##ist": 448,
      "##os": 449,
      "##ive": 450,
      "pol": 451,
      "fr": 452,
      "##pe": 453,
      "sh": 454,
      "wor": 455,
      "will": 456,
      "have": 457,
      "##ould": 458,
      "or": 459,
      "tr": 460,
      "has": 461,
      "##and": 462,
      "##over": 463,
      "le": 464,
      "coun": 465,
      "su": 466,
      "##ical": 467,
      "##ort": 468,
      "##mp": 469,
      "##con": 470,
      "at": 471,
      "its": 472,
      "##ff": 473,
      "##ions": 474,
      "##uro": 475,
      "##ost": 476,
      "ac": 477,
      "##iz": 478,
      "countr": 479,
      "##ust": 480,
      "en": 481,
      "##conom": 482,
      "##od": 483,
      "from": 484,
      "ch": 485,
      "##pp": 486,
      "##mer": 487,
      "their": 488,
      "res": 489,
      "##ans": 490,
      "##ib": 491,
      "econom": 492,
      "##un": 493,
      "was": 494,
      "un": 495,
      "##ear": 496,
      "Euro": 497,
      "##ch": 498,
      "Europe": 499,
      "Ch": 500,
      "##ant": 501,
      "##ong": 502,
      "more": 503,
      "##art": 504,
      "##ome": 505,
      "##lo": 506,
      "this": 507,
      "In": 508,
      "##ra": 509,
      "##ast": 510,
      "##end": 511,
      "ab": 512,
      "##ich": 513,
      "##um": 514,
      "##gh": 515,
      "##ure": 516,
      "we": 517,
      "##ous": 518,
      "inter": 519,
      "But": 520,
      "can": 521,
      "##uch": 522,
      "all": 523,
      "##ely": 524,
      "##ary": 525,
      "ag": 526,
      "inc": 527,
      "##overn": 528,
      "but": 529,
      "they": 530,
      "##ance": 531,
      "##out": 532,
      "imp": 533,
      "##all": 534,
      "##ence": 535,
      "##if": 536,
      "se": 537,
      "##ip": 538,
      "govern": 539,
      "cr": 540,
      "##qu": 541,
      "would": 542,
      "##ations": 543,
      "##ud": 544,
      "##anc": 545,
      "exp": 546,
      "##ational": 547,
      "##reat": 548,
      "countries": 549,
      "ad": 550,
      "##ard": 551,
      "rec": 552,
      "world": 553,
      "than": 554,
      "which": 555,
      "##ight": 556,
      "government": 557,
      "US": 558,
      "##ark": 559,
      "polit": 560,
      "Amer": 561,
      "Americ": 562,
      "##ough": 563,
      "##erm": 564,
      "##act": 565,
      "str": 566,
      "##able": 567,
      "int": 568,
      "Chin": 569,
      "comp": 570,
      "dis": 571,
      "##ian": 572,
      "##ther": 573,
      "do": 574,
      "##ag": 575,
      "year": 576,
      "bec": 577,
      "##ates": 578,
      "he": 579,
      "##pt": 580,
      "##her": 581,
      "##ik": 582,
      "pe": 583,
      "fin": 584,
      "##ign": 585,
      "##any": 586,
      "##vel": 587,
      "ev": 588,
      "##ult": 589,
      "##ell": 590,
      "part": 591,
      "##lic": 592,
      "##ated": 593,
      "##ie": 594,
      "##row": 595,
      "new": 596,
      "##ue": 597,
      "##ks": 598,
      "##00": 599,
      "##orm": 600,
      "reg": 601,
      "##ime": 602,
      "dem": 603,
      "19": 604,
      "sp": 605,
      "so": 606,
      "##uss": 607,
      "##ose": 608,
      "##ep": 609,
      "been": 610,
      "ar": 611,
      "polic": 612,
      "di": 613,
      "out": 614,
      "economic": 615,
      "##ual": 616,
      "##ub": 617,
      "##ism": 618,
      "##enc": 619,
      "one": 620,
      "##ish": 621,
      "##og": 622,
      "##one": 623,
      "##ens": 624,
      "pl": 625,
      "cont": 626,
      "dec": 627,
      "mark": 628,
      "##ower": 629,
      "##ition": 630,
      "##bal": 631,
      "China": 632,
      "ind": 633,
      "##uct": 634,
      "only": 635,
      "##ade": 636,
      "over": 637,
      "comm": 638,
      "##au": 639,
      "no": 640,
      "political": 641,
      "##ace": 642,
      "me": 643,
      "##age": 644,
      "other": 645,
      "##oll": 646,
      "Russ": 647,
      "##ack": 648,
      "his": 649,
      "##ound": 650,
      "about": 651,
      "##ors": 652,
      "##so": 653,
      "Un": 654,
      "##ree": 655,
      "market": 656,
      "##lobal": 657,
      "should": 658,
      "inv": 659,
      "rel": 660,
      "who": 661,
      "were": 662,
      "##ake": 663,
      "und": 664,
      "##av": 665,
      "##ople": 666,
      "el": 667,
      "also": 668,
      "cl": 669,
      "bet": 670,
      "##form": 671,
      "##ail": 672,
      "lead": 673,
      "##our": 674,
      "##cess": 675,
      "It": 676,
      "As": 677,
      "grow": 678,
      "##ile": 679,
      "global": 680,
      "if": 681,
      "##ause": 682,
      "go": 683,
      "now": 684,
      "##ide": 685,
      "##ine": 686,
      "there": 687,
      "pre": 688,
      "need": 689,
      "most": 690,
      "##ident": 691,
      "##ame": 692,
      "Ind": 693,
      "##ility": 694,
      "people": 695,
      "##ious": 696,
      "##oun": 697,
      "##velop": 698,
      "per": 699,
      "lik": 700,
      "Wh": 701,
      "such": 702,
      "them": 703,
      "##gr": 704,
      "##urr": 705,
      "##ocr": 706,
      "off": 707,
      "##ice": 708,
      "##ution": 709,
      "cons": 710,
      "eff": 711,
      "financ": 712,
      "This": 713,
      "##ange": 714,
      "Is": 715,
      "years": 716,
      "##tern": 717,
      "power": 718,
      "supp": 719,
      "even": 720,
      "European": 721,
      "##ach": 722,
      "up": 723,
      "def": 724,
      "sec": 725,
      "##reas": 726,
      "develop": 727,
      "##eral": 728,
      "##ities": 729,
      "under": 730,
      "##ments": 731,
      "soc": 732,
      "high": 733,
      "long": 734,
      "sy": 735,
      "##pr": 736,
      "some": 737,
      "when": 738,
      "could": 739,
      "##ber": 740,
      "##ons": 741,
      "may": 742,
      "these": 743,
      "##ble": 744,
      "country": 745,
      "Af": 746,
      "##ond": 747,
      "##ublic": 748,
      "ris": 749,
      "##ang": 750,
      "many": 751,
      "war": 752,
      "rem": 753,
      "##we": 754,
      "200": 755,
      "fir": 756,
      "into": 757,
      "##old": 758,
      "##ew": 759,
      "must": 760,
      "intern": 761,
      "what": 762,
      "##esident": 763,
      "act": 764,
      "cap": 765,
      "financial": 766,
      "America": 767,
      "##ese": 768,
      "##ory": 769,
      "##ited": 770,
      "##lear": 771,
      "##stit": 772,
      "##ord": 773,
      "real": 774,
      "Russia": 775,
      "policy": 776,
      "##ank": 777,
      "us": 778,
      "tw": 779,
      "how": 780,
      "po": 781,
      "##ov": 782,
      "because": 783,
      "gr": 784,
      "##ass": 785,
      "again": 786,
      "##are": 787,
      "qu": 788,
      "##stem": 789,
      "##ict": 790,
      "curr": 791,
      "sc": 792,
      "##iet": 793,
      "increas": 794,
      "any": 795,
      "##fl": 796,
      "EU": 797,
      "##erv": 798,
      "time": 799,
      "##und": 800,
      "##ct": 801,
      "ass": 802,
      "St": 803,
      "had": 804,
      "system": 805,
      "diff": 806,
      "##ful": 807,
      "work": 808,
      "democr": 809,
      "cris": 810,
      "Pr": 811,
      "cent": 812,
      "invest": 813,
      "##ists": 814,
      "much": 815,
      "Fr": 816,
      "##ween": 817,
      "pos": 818,
      "app": 819,
      "international": 820,
      "##amp": 821,
      "acc": 822,
      "conf": 823,
      "##ible": 824,
      "economy": 825,
      "##ech": 826,
      "##oth": 827,
      "between": 828,
      "##own": 829,
      "way": 830,
      "##ization": 831,
      "growth": 832,
      "##aw": 833,
      "##ative": 834,
      "##acy": 835,
      "state": 836,
      "##urn": 837,
      "gen": 838,
      "##inis": 839,
      "##ru": 840,
      "##ital": 841,
      "prod": 842,
      "##hip": 843,
      "##ind": 844,
      "##per": 845,
      "##arg": 846,
      "##ices": 847,
      "##elf": 848,
      "##iss": 849,
      "ow": 850,
      "##ok": 851,
      "public": 852,
      "des": 853,
      "##rough": 854,
      "prov": 855,
      "ever": 856,
      "##ency": 857,
      "am": 858,
      "##blem": 859,
      "mem": 860,
      "##ient": 861,
      "##its": 862,
      "##ating": 863,
      "##ied": 864,
      "##ite": 865,
      "##err": 866,
      "two": 867,
      "##ush": 868,
      "problem": 869,
      ".\"": 870,
      "our": 871,
      "resp": 872,
      "##atic": 873,
      "##ire": 874,
      "crisis": 875,
      "hel": 876,
      "##gy": 877,
      "##ene": 878,
      "##itt": 879,
      "##ilit": 880,
      "well": 881,
      "att": 882,
      "##ric": 883,
      "elect": 884,
      "man": 885,
      "##illion": 886,
      "##eed": 887,
      "##ular": 888,
      "those": 889,
      "##eign": 890,
      "##ise": 891,
      "like": 892,
      "co": 893,
      "own": 894,
      "##ians": 895,
      "just": 896,
      "##int": 897,
      "trans": 898,
      "##ob": 899,
      "##ings": 900,
      "leaders": 901,
      "##ern": 902,
      "end": 903,
      "##olog": 904,
      "##ran": 905,
      "##ild": 906,
      "id": 907,
      "against": 908,
      "mon": 909,
      "##ty": 910,
      "first": 911,
      "term": 912,
      "American": 913,
      "##lud": 914,
      "##ics": 915,
      "national": 916,
      "deb": 917,
      "##ues": 918,
      "##ives": 919,
      "opp": 920,
      "less": 921,
      "##tain": 922,
      "bas": 923,
      "far": 924,
      "##pen": 925,
      "##rael": 926,
      "Israel": 927,
      "mod": 928,
      "Germ": 929,
      "##vers": 930,
      "hum": 931,
      "##ized": 932,
      "milit": 933,
      "##ress": 934,
      "On": 935,
      "ob": 936,
      "##ific": 937,
      "Al": 938,
      "remain": 939,
      "sub": 940,
      "af": 941,
      "import": 942,
      "For": 943,
      "kn": 944,
      "##aj": 945,
      "##ize": 946,
      "Jap": 947,
      "Japan": 948,
      "##ral": 949,
      "reform": 950,
      "##ural": 951,
      "##uring": 952,
      "recent": 953,
      "Ar": 954,
      "##ince": 955,
      "##ward": 956,
      "red": 957,
      "##vent": 958,
      "##ever": 959,
      "##ures": 960,
      "support": 961,
      "infl": 962,
      "##ays": 963,
      "##urity": 964,
      "contin": 965,
      "lo": 966,
      "##ey": 967,
      "im": 968,
      "both": 969,
      "after": 970,
      "199": 971,
      "great": 972,
      "where": 973,
      "fact": 974,
      "seem": 975,
      "help": 976,
      "bel": 977,
      "##ase": 978,
      "##ax": 979,
      "##ces": 980,
      "If": 981,
      "make": 982,
      "change": 983,
      "good": 984,
      "##ether": 985,
      "too": 986,
      "social": 987,
      "capital": 988,
      "suc": 989,
      "##gan": 990,
      "conc": 991,
      "foreign": 992,
      "##orts": 993,
      "sim": 994,
      "ins": 995,
      "br": 996,
      "##ally": 997,
      "United": 998,
      "fail": 999,
      "##ajor": 1000,
      "##alth": 1001,
      "##led": 1002,
      "##ting": 1003,
      "##arge": 1004,
      "pop": 1005,
      "##ability": 1006,
      "##loy": 1007,
      "sur": 1008,
      "terr": 1009,
      "rep": 1010,
      "##cept": 1011,
      "##bers": 1012,
      "includ": 1013,
      "human": 1014,
      "region": 1015,
      "military": 1016,
      "cor": 1017,
      "contr": 1018,
      "major": 1019,
      "commun": 1020,
      "through": 1021,
      "President": 1022,
      "trade": 1023,
      "##ove": 1024,
      "##ests": 1025,
      "##raq": 1026,
      "Iraq": 1027,
      "prot": 1028,
      "markets": 1029,
      "does": 1030,
      "##ense": 1031,
      "##ft": 1032,
      "##ically": 1033,
      "last": 1034,
      "every": 1035,
      "differ": 1036,
      "##ink": 1037,
      "while": 1038,
      "par": 1039,
      "##read": 1040,
      "leg": 1041,
      "see": 1042,
      "##fore": 1043,
      "cost": 1044,
      "##les": 1045,
      "instit": 1046,
      "bu": 1047,
      "##omm": 1048,
      "ret": 1049,
      "So": 1050,
      "##ole": 1051,
      "Afric": 1052,
      "##aking": 1053,
      "Iran": 1054,
      "become": 1055,
      "##ath": 1056,
      "##ather": 1057,
      "interest": 1058,
      "##str": 1059,
      "current": 1060,
      "call": 1061,
      "##day": 1062,
      "##utions": 1063,
      "##eng": 1064,
      "iss": 1065,
      "em": 1066,
      "##ets": 1067,
      "fund": 1068,
      "##iven": 1069,
      "cour": 1070,
      "partic": 1071,
      "##ustr": 1072,
      "right": 1073,
      "prom": 1074,
      "##ev": 1075,
      "##ights": 1076,
      "progr": 1077,
      "##air": 1078,
      "requ": 1079,
      "##not": 1080,
      "##imes": 1081,
      "##olution": 1082,
      "##der": 1083,
      "rev": 1084,
      "being": 1085,
      "##ents": 1086,
      "##rol": 1087,
      "bo": 1088,
      "##ected": 1089,
      "important": 1090,
      "back": 1091,
      "##echn": 1092,
      "tax": 1093,
      "##istan": 1094,
      "ban": 1095,
      "##ects": 1096,
      "adv": 1097,
      "##imate": 1098,
      "##ood": 1099,
      "dep": 1100,
      "We": 1101,
      "emp": 1102,
      "poor": 1103,
      "fut": 1104,
      "##ss": 1105,
      "##ually": 1106,
      "same": 1107,
      "ide": 1108,
      "did": 1109,
      "##ead": 1110,
      "main": 1111,
      "##uth": 1112,
      "bl": 1113,
      "##ved": 1114,
      "today": 1115,
      ",\"": 1116,
      "##ily": 1117,
      "examp": 1118,
      "##hing": 1119,
      "20": 1120,
      "disc": 1121,
      "##sp": 1122,
      "Indeed": 1123,
      "##uction": 1124,
      "##als": 1125,
      "##rect": 1126,
      "add": 1127,
      "##ex": 1128,
      "sign": 1129,
      "##ery": 1130,
      "val": 1131,
      "##ock": 1132,
      "priv": 1133,
      "governments": 1134,
      "belie": 1135,
      "##uclear": 1136,
      "still": 1137,
      "##ulation": 1138,
      "##osed": 1139,
      "sm": 1140,
      "hist": 1141,
      "dom": 1142,
      "##ially": 1143,
      "law": 1144,
      "ap": 1145,
      "est": 1146,
      "clear": 1147,
      "bank": 1148,
      "##lish": 1149,
      "effect": 1150,
      "##ars": 1151,
      "without": 1152,
      "##ision": 1153,
      "India": 1154,
      "##ater": 1155,
      "future": 1156,
      "##eration": 1157,
      "members": 1158,
      "poss": 1159,
      "set": 1160,
      "##ness": 1161,
      "ear": 1162,
      "might": 1163,
      "##gg": 1164,
      "##ending": 1165,
      "success": 1166,
      "made": 1167,
      "security": 1168,
      "##iness": 1169,
      "pres": 1170,
      "policies": 1171,
      "##ten": 1172,
      "Pal": 1173,
      "##ands": 1174,
      "since": 1175,
      "result": 1176,
      "example": 1177,
      "states": 1178,
      "use": 1179,
      "strate": 1180,
      "ext": 1181,
      "take": 1182,
      "form": 1183,
      "##rit": 1184,
      "adm": 1185,
      "president": 1186,
      "down": 1187,
      "level": 1188,
      "know": 1189,
      "rate": 1190,
      "There": 1191,
      "##ced": 1192,
      "nuclear": 1193,
      "##ior": 1194,
      "##cc": 1195,
      "More": 1196,
      "They": 1197,
      "bene": 1198,
      "##iew": 1199,
      "techn": 1200,
      "cannot": 1201,
      "then": 1202,
      "peace": 1203,
      "societ": 1204,
      "Union": 1205,
      "sa": 1206,
      "##ergy": 1207,
      "control": 1208,
      "##emp": 1209,
      "ser": 1210,
      "States": 1211,
      "##inister": 1212,
      "##ably": 1213,
      "Palest": 1214,
      "reas": 1215,
      "Bush": 1216,
      "##ves": 1217,
      "oil": 1218,
      "rates": 1219,
      "Germany": 1220,
      "past": 1221,
      "open": 1222,
      "threat": 1223,
      "large": 1224,
      "##ury": 1225,
      "##oup": 1226,
      "dr": 1227,
      "you": 1228,
      "strong": 1229,
      "compet": 1230,
      "##ively": 1231,
      "benef": 1232,
      "Chinese": 1233,
      "##ning": 1234,
      "coll": 1235,
      "banks": 1236,
      "terror": 1237,
      "##ted": 1238,
      "risk": 1239,
      "vot": 1240,
      "quest": 1241,
      "cond": 1242,
      "And": 1243,
      "democracy": 1244,
      "course": 1245,
      "development": 1246,
      "equ": 1247,
      "##ortun": 1248,
      "appro": 1249,
      "emer": 1250,
      "##ah": 1251,
      "neg": 1252,
      "##other": 1253,
      "##ately": 1254,
      "pers": 1255,
      "##ims": 1256,
      "##rupt": 1257,
      "##ined": 1258,
      "bus": 1259,
      "##rem": 1260,
      "##ider": 1261,
      "hard": 1262,
      "##aps": 1263,
      "##ject": 1264,
      "##ession": 1265,
      "##ying": 1266,
      "prices": 1267,
      "Comm": 1268,
      "likely": 1269,
      "turn": 1270,
      "##ared": 1271,
      "rights": 1272,
      "That": 1273,
      "doll": 1274,
      "before": 1275,
      "fl": 1276,
      "serv": 1277,
      "debt": 1278,
      "energy": 1279,
      "better": 1280,
      "very": 1281,
      "vi": 1282,
      "process": 1283,
      "##ollow": 1284,
      "det": 1285,
      "##oss": 1286,
      "##ven": 1287,
      "##idd": 1288,
      "prop": 1289,
      "lif": 1290,
      "sl": 1291,
      "##TO": 1292,
      "few": 1293,
      "##icial": 1294,
      "order": 1295,
      "exper": 1296,
      "##oney": 1297,
      "##inistr": 1298,
      "##ingly": 1299,
      "West": 1300,
      "##ash": 1301,
      "free": 1302,
      "business": 1303,
      "##uce": 1304,
      "##ivid": 1305,
      "cred": 1306,
      "industr": 1307,
      "med": 1308,
      "##ience": 1309,
      "##wh": 1310,
      "often": 1311,
      "##ick": 1312,
      "##mental": 1313,
      "##isc": 1314,
      "##ama": 1315,
      "direct": 1316,
      "car": 1317,
      "##az": 1318,
      "spec": 1319,
      "At": 1320,
      "##ences": 1321,
      "Palestin": 1322,
      "##udg": 1323,
      "Nor": 1324,
      "ref": 1325,
      "stand": 1326,
      "Sec": 1327,
      "relations": 1328,
      "rul": 1329,
      "trad": 1330,
      "##loyment": 1331,
      "chall": 1332,
      "group": 1333,
      "Ob": 1334,
      "Wor": 1335,
      "decl": 1336,
      "##itions": 1337,
      "creat": 1338,
      "money": 1339,
      "allow": 1340,
      "##ential": 1341,
      "problems": 1342,
      "institutions": 1343,
      "##duc": 1344,
      "civ": 1345,
      "larg": 1346,
      "##reed": 1347,
      "follow": 1348,
      "##ants": 1349,
      "including": 1350,
      "appe": 1351,
      "sect": 1352,
      "##ertain": 1353,
      "investment": 1354,
      "emerg": 1355,
      "lib": 1356,
      "however": 1357,
      "He": 1358,
      "inst": 1359,
      "demand": 1360,
      "billion": 1361,
      "France": 1362,
      "rather": 1363,
      "East": 1364,
      "##estern": 1365,
      "imm": 1366,
      "##outh": 1367,
      "beh": 1368,
      "##ount": 1369,
      "short": 1370,
      "##ittle": 1371,
      "aff": 1372,
      "euro": 1373,
      "##thers": 1374,
      "##ier": 1375,
      "##atter": 1376,
      "Sh": 1377,
      "Asia": 1378,
      "Brit": 1379,
      "##ench": 1380,
      "gu": 1381,
      "protect": 1382,
      "Pol": 1383,
      "health": 1384,
      "##icult": 1385,
      "##aken": 1386,
      "##lam": 1387,
      "small": 1388,
      "##ibility": 1389,
      "means": 1390,
      "agree": 1391,
      "pay": 1392,
      "arg": 1393,
      "##abor": 1394,
      "central": 1395,
      "pur": 1396,
      "##ms": 1397,
      "##ages": 1398,
      "simp": 1399,
      "Kore": 1400,
      "fac": 1401,
      "particular": 1402,
      "To": 1403,
      "another": 1404,
      "get": 1405,
      "though": 1406,
      "##akes": 1407,
      "developing": 1408,
      "##omet": 1409,
      "different": 1410,
      "fall": 1411,
      "old": 1412,
      "),": 1413,
      "role": 1414,
      "want": 1415,
      "three": 1416,
      "put": 1417,
      "big": 1418,
      "##ix": 1419,
      "##uthor": 1420,
      "Africa": 1421,
      "civil": 1422,
      "##less": 1423,
      "##MF": 1424,
      "An": 1425,
      "little": 1426,
      "ph": 1427,
      "##ivers": 1428,
      "view": 1429,
      "IMF": 1430,
      "hap": 1431,
      "##ret": 1432,
      "##urk": 1433,
      "press": 1434,
      "##ances": 1435,
      "chang": 1436,
      "among": 1437,
      "Islam": 1438,
      "viol": 1439,
      "ent": 1440,
      "##iving": 1441,
      "av": 1442,
      "run": 1443,
      "exch": 1444,
      "##ission": 1445,
      "underst": 1446,
      "##ump": 1447,
      "say": 1448,
      "##sel": 1449,
      "ant": 1450,
      "num": 1451,
      "##ines": 1452,
      "move": 1453,
      "##inc": 1454,
      "play": 1455,
      "low": 1456,
      "private": 1457,
      "ful": 1458,
      "prof": 1459,
      "around": 1460,
      "##lus": 1461,
      "society": 1462,
      "technolog": 1463,
      "sol": 1464,
      "concern": 1465,
      "democratic": 1466,
      "With": 1467,
      "##ron": 1468,
      "##selves": 1469,
      "eas": 1470,
      "ke": 1471,
      "occ": 1472,
      "organ": 1473,
      "Moreover": 1474,
      "job": 1475,
      "##iddle": 1476,
      "##etary": 1477,
      "##idence": 1478,
      "NA": 1479,
      "##ides": 1480,
      "##earch": 1481,
      "needs": 1482,
      "##ecess": 1483,
      "What": 1484,
      "least": 1485,
      "difficult": 1486,
      "##most": 1487,
      "start": 1488,
      "lim": 1489,
      "##hie": 1490,
      "##iscal": 1491,
      "achie": 1492,
      "hop": 1493,
      "official": 1494,
      "Turk": 1495,
      "within": 1496,
      "cut": 1497,
      "ago": 1498,
      "##egr": 1499,
      "inflation": 1500,
      "fe": 1501,
      "administr": 1502,
      "##ready": 1503,
      "##imin": 1504,
      "##aving": 1505,
      "##ources": 1506,
      "defic": 1507,
      "World": 1508,
      "cre": 1509,
      "itself": 1510,
      "during": 1511,
      "program": 1512,
      "point": 1513,
      "##DP": 1514,
      "##ued": 1515,
      "life": 1516,
      "conflic": 1517,
      "##omen": 1518,
      "##par": 1519,
      "exchange": 1520,
      "Western": 1521,
      "##ither": 1522,
      "post": 1523,
      "toward": 1524,
      "economies": 1525,
      "Russian": 1526,
      "find": 1527,
      "rest": 1528,
      "crit": 1529,
      "author": 1530,
      "##ling": 1531,
      "When": 1532,
      "##ablish": 1533,
      "non": 1534,
      "show": 1535,
      "whether": 1536,
      "come": 1537,
      "produc": 1538,
      "treat": 1539,
      "common": 1540,
      "currency": 1541,
      "Obama": 1542,
      "million": 1543,
      "serious": 1544,
      "Bank": 1545,
      "198": 1546,
      "already": 1547,
      "nat": 1548,
      "##oral": 1549,
      "##ogn": 1550,
      "##ross": 1551,
      "climate": 1552,
      "case": 1553,
      "##xt": 1554,
      "##haps": 1555,
      "increase": 1556,
      "cult": 1557,
      "never": 1558,
      "##ouse": 1559,
      "##epend": 1560,
      "needed": 1561,
      "respons": 1562,
      "reason": 1563,
      "repr": 1564,
      "Con": 1565,
      "interests": 1566,
      "century": 1567,
      "env": 1568,
      "based": 1569,
      "think": 1570,
      "suff": 1571,
      "##ner": 1572,
      "##ys": 1573,
      "fiscal": 1574,
      "aw": 1575,
      "impro": 1576,
      "establish": 1577,
      "ann": 1578,
      "Arab": 1579,
      "UN": 1580,
      "found": 1581,
      "mass": 1582,
      "beg": 1583,
      "##estic": 1584,
      "almost": 1585,
      "South": 1586,
      "del": 1587,
      "##ute": 1588,
      "seems": 1589,
      "question": 1590,
      "higher": 1591,
      "NATO": 1592,
      "return": 1593,
      "ro": 1594,
      "##ilar": 1595,
      "place": 1596,
      "others": 1597,
      "deep": 1598,
      "price": 1599,
      "child": 1600,
      "##oti": 1601,
      "next": 1602,
      "called": 1603,
      "##ators": 1604,
      "rich": 1605,
      "##aus": 1606,
      "remains": 1607,
      "left": 1608,
      "history": 1609,
      "educ": 1610,
      "##ered": 1611,
      "inf": 1612,
      "French": 1613,
      "##up": 1614,
      "build": 1615,
      "politics": 1616,
      "fam": 1617,
      "##ades": 1618,
      "These": 1619,
      "##ided": 1620,
      "##ipl": 1621,
      "##lement": 1622,
      "themselves": 1623,
      "sever": 1624,
      "domestic": 1625,
      "month": 1626,
      "recogn": 1627,
      "Yet": 1628,
      ").": 1629,
      "pat": 1630,
      "requir": 1631,
      "somet": 1632,
      "##iron": 1633,
      "dollar": 1634,
      "my": 1635,
      "##pite": 1636,
      "##ends": 1637,
      "second": 1638,
      "prevent": 1639,
      "##els": 1640,
      "War": 1641,
      "why": 1642,
      "##ently": 1643,
      "former": 1644,
      "##ived": 1645,
      "possible": 1646,
      "loc": 1647,
      "best": 1648,
      "longer": 1649,
      "##ird": 1650,
      "##oub": 1651,
      "her": 1652,
      "negoti": 1653,
      "##ained": 1654,
      "##stitution": 1655,
      "##ember": 1656,
      "meet": 1657,
      "##road": 1658,
      "accept": 1659,
      "##eb": 1660,
      "meas": 1661,
      "min": 1662,
      "force": 1663,
      "administration": 1664,
      "hold": 1665,
      "##itiz": 1666,
      "##vious": 1667,
      "look": 1668,
      "liberal": 1669,
      "ru": 1670,
      "each": 1671,
      "##til": 1672,
      "integr": 1673,
      "One": 1674,
      "GDP": 1675,
      "labor": 1676,
      "exist": 1677,
      "##ividual": 1678,
      "##utin": 1679,
      "independ": 1680,
      "##izing": 1681,
      "fear": 1682,
      "##ai": 1683,
      "##itive": 1684,
      "##cil": 1685,
      "Tr": 1686,
      "pot": 1687,
      "##anies": 1688,
      "income": 1689,
      "plan": 1690,
      "modern": 1691,
      "##hold": 1692,
      "election": 1693,
      "number": 1694,
      "##itional": 1695,
      "inform": 1696,
      "hal": 1697,
      "eng": 1698,
      "led": 1699,
      "Afgh": 1700,
      "##ised": 1701,
      "regime": 1702,
      "hand": 1703,
      "sch": 1704,
      "greater": 1705,
      "il": 1706,
      "making": 1707,
      "environ": 1708,
      "sector": 1709,
      "consider": 1710,
      "##ength": 1711,
      "individual": 1712,
      "understand": 1713,
      "##ering": 1714,
      "party": 1715,
      "matter": 1716,
      "deal": 1717,
      "tal": 1718,
      "citiz": 1719,
      "cla": 1720,
      "Korea": 1721,
      "##sequ": 1722,
      "companies": 1723,
      "opportun": 1724,
      "expl": 1725,
      "once": 1726,
      "Pak": 1727,
      "necess": 1728,
      "##though": 1729,
      "budg": 1730,
      "##iqu": 1731,
      "Pakistan": 1732,
      "continue": 1733,
      "used": 1734,
      "Even": 1735,
      "##ention": 1736,
      "oppos": 1737,
      "Afghan": 1738,
      "esp": 1739,
      "##ren": 1740,
      "##lia": 1741,
      "member": 1742,
      "ra": 1743,
      "Part": 1744,
      "bal": 1745,
      "reach": 1746,
      "population": 1747,
      "foc": 1748,
      "spe": 1749,
      "influ": 1750,
      "##ters": 1751,
      "stud": 1752,
      "fur": 1753,
      "Sov": 1754,
      "funda": 1755,
      "Soviet": 1756,
      "##ases": 1757,
      "vict": 1758,
      "##iate": 1759,
      "growing": 1760,
      "##icient": 1761,
      "women": 1762,
      "##ned": 1763,
      "##aged": 1764,
      "##ug": 1765,
      "share": 1766,
      "relig": 1767,
      "believe": 1768,
      "begin": 1769,
      "him": 1770,
      "##ry": 1771,
      "Intern": 1772,
      "Putin": 1773,
      "Mus": 1774,
      "After": 1775,
      "##omp": 1776,
      "repres": 1777,
      "spending": 1778,
      "mean": 1779,
      "##ork": 1780,
      "wr": 1781,
      "head": 1782,
      "approach": 1783,
      "focus": 1784,
      "yet": 1785,
      "costs": 1786,
      "sit": 1787,
      "dang": 1788,
      "rise": 1789,
      "##uation": 1790,
      "keep": 1791,
      "##arm": 1792,
      "##ways": 1793,
      "credit": 1794,
      "##ecially": 1795,
      "North": 1796,
      "##eld": 1797,
      "Coun": 1798,
      "care": 1799,
      "##overty": 1800,
      "resources": 1801,
      "Musl": 1802,
      "home": 1803,
      "##ale": 1804,
      "Lat": 1805,
      "##ards": 1806,
      "further": 1807,
      "##rain": 1808,
      "provide": 1809,
      "cho": 1810,
      "000": 1811,
      "##land": 1812,
      "stability": 1813,
      "sense": 1814,
      "especially": 1815,
      "certain": 1816,
      "key": 1817,
      "##io": 1818,
      "Ge": 1819,
      "issues": 1820,
      "##lex": 1821,
      "forces": 1822,
      "##ged": 1823,
      "##ike": 1824,
      "don": 1825,
      "##omes": 1826,
      "given": 1827,
      "##ats": 1828,
      "corrupt": 1829,
      "enough": 1830,
      "elections": 1831,
      "research": 1832,
      "ens": 1833,
      "strength": 1834,
      "strateg": 1835,
      "rule": 1836,
      "face": 1837,
      "pract": 1838,
      "regional": 1839,
      "Palestinian": 1840,
      "##onstr": 1841,
      "sugg": 1842,
      "politic": 1843,
      "vis": 1844,
      "thus": 1845,
      "dist": 1846,
      "struct": 1847,
      "##iation": 1848,
      "##ateral": 1849,
      "##rug": 1850,
      "citizens": 1851,
      "De": 1852,
      "efforts": 1853,
      "anti": 1854,
      "regul": 1855,
      "##uge": 1856,
      "Turkey": 1857,
      "##red": 1858,
      "##liament": 1859,
      "Cent": 1860,
      "By": 1861,
      "reforms": 1862,
      "issue": 1863,
      "##ivity": 1864,
      "enc": 1865,
      "community": 1866,
      "##ising": 1867,
      "mult": 1868,
      "jo": 1869,
      "##ium": 1870,
      "rap": 1871,
      "All": 1872,
      "weak": 1873,
      "##ises": 1874,
      "##incip": 1875,
      "poverty": 1876,
      "caus": 1877,
      "##istic": 1878,
      "decades": 1879,
      "person": 1880,
      "##ified": 1881,
      "signific": 1882,
      "happen": 1883,
      "comb": 1884,
      "weap": 1885,
      "conflict": 1886,
      "##tion": 1887,
      "##ination": 1888,
      "self": 1889,
      "sust": 1890,
      "##raz": 1891,
      "##uel": 1892,
      "early": 1893,
      "general": 1894,
      "While": 1895,
      "terms": 1896,
      "Or": 1897,
      "##oming": 1898,
      "unemp": 1899,
      "monetary": 1900,
      "##eg": 1901,
      "disp": 1902,
      "gener": 1903,
      "recently": 1904,
      "near": 1905,
      "princip": 1906,
      "pred": 1907,
      "Middle": 1908,
      "Latin": 1909,
      "camp": 1910,
      "##reedom": 1911,
      "oper": 1912,
      "##aly": 1913,
      "product": 1914,
      "Geor": 1915,
      "opt": 1916,
      "##rop": 1917,
      "Of": 1918,
      "##atives": 1919,
      "benefits": 1920,
      "bring": 1921,
      "Rep": 1922,
      "##ee": 1923,
      "contrib": 1924,
      "emb": 1925,
      "said": 1926,
      "local": 1927,
      "##encies": 1928,
      "Uk": 1929,
      "always": 1930,
      "lack": 1931,
      "##ured": 1932,
      "Ukrain": 1933,
      "New": 1934,
      "value": 1935,
      "Some": 1936,
      "dev": 1937,
      "half": 1938,
      "arr": 1939,
      "bre": 1940,
      "Americans": 1941,
      "##arian": 1942,
      "strategy": 1943,
      "##ening": 1944,
      "##empt": 1945,
      "promot": 1946,
      "parties": 1947,
      "##ensive": 1948,
      "leadership": 1949,
      "simply": 1950,
      "refl": 1951,
      "extrem": 1952,
      "##where": 1953,
      "lower": 1954,
      "##ilateral": 1955,
      "##vention": 1956,
      "Braz": 1957,
      "init": 1958,
      "Brazil": 1959,
      "##ened": 1960,
      "stat": 1961,
      "scient": 1962,
      "particularly": 1963,
      "Minister": 1964,
      "##ming": 1965,
      "##acks": 1966,
      "##ceed": 1967,
      "sum": 1968,
      "account": 1969,
      "access": 1970,
      "German": 1971,
      "perhaps": 1972,
      "able": 1973,
      "times": 1974,
      "##oura": 1975,
      "danger": 1976,
      "##gent": 1977,
      "saf": 1978,
      "##oid": 1979,
      "##raw": 1980,
      "create": 1981,
      "day": 1982,
      "true": 1983,
      "##truct": 1984,
      "bad": 1985,
      "##ners": 1986,
      "##iod": 1987,
      "compl": 1988,
      "effective": 1989,
      "##omb": 1990,
      "How": 1991,
      "##ving": 1992,
      "reduc": 1993,
      "step": 1994,
      "##ept": 1995,
      "workers": 1996,
      "sk": 1997,
      "Afghanistan": 1998,
      "Mex": 1999,
      "Mexic": 2000,
      "##por": 2001,
      "arm": 2002,
      "##iplom": 2003,
      "##abil": 2004,
      "##ality": 2005,
      "hope": 2006,
      "##ger": 2007,
      "##enge": 2008,
      "##ield": 2009,
      "similar": 2010,
      "progress": 2011,
      "emerging": 2012,
      "##ody": 2013,
      "coop": 2014,
      "ty": 2015,
      "fight": 2016,
      "nor": 2017,
      "##man": 2018,
      "##side": 2019,
      "abs": 2020,
      "Party": 2021,
      "##erb": 2022,
      "reduce": 2023,
      "shar": 2024,
      "decade": 2025,
      "whose": 2026,
      "1990": 2027,
      "minister": 2028,
      "information": 2029,
      "consequ": 2030,
      "children": 2031,
      "##isions": 2032,
      "investors": 2033,
      "Pro": 2034,
      "##urd": 2035,
      "commit": 2036,
      "##ool": 2037,
      "mer": 2038,
      "invol": 2039,
      "freedom": 2040,
      "education": 2041,
      "eth": 2042,
      "pros": 2043,
      "idea": 2044,
      "significant": 2045,
      "increasingly": 2046,
      "maintain": 2047,
      "##gn": 2048,
      "require": 2049,
      "En": 2050,
      "seen": 2051,
      "done": 2052,
      "diplom": 2053,
      "address": 2054,
      "targ": 2055,
      "##atch": 2056,
      "##arch": 2057,
      "##ival": 2058,
      "Central": 2059,
      "##issions": 2060,
      "la": 2061,
      "##ining": 2062,
      "Fin": 2063,
      "##come": 2064,
      "firms": 2065,
      "unemployment": 2066,
      "action": 2067,
      "tot": 2068,
      "ident": 2069,
      "budget": 2070,
      "fundamental": 2071,
      "represent": 2072,
      "intell": 2073,
      "groups": 2074,
      "##ories": 2075,
      "challeng": 2076,
      "bor": 2077,
      "bord": 2078,
      "decision": 2079,
      "Council": 2080,
      "Cl": 2081,
      "drug": 2082,
      "##anced": 2083,
      "##thing": 2084,
      "sing": 2085,
      "ur": 2086,
      "constr": 2087,
      "##for": 2088,
      "majority": 2089,
      "10": 2090,
      "##ighb": 2091,
      "rapid": 2092,
      "met": 2093,
      "tog": 2094,
      "weapons": 2095,
      "together": 2096,
      "services": 2097,
      "##erve": 2098,
      "increased": 2099,
      "ways": 2100,
      "##sw": 2101,
      "industrial": 2102,
      "Many": 2103,
      "Israeli": 2104,
      "potential": 2105,
      "third": 2106,
      "seek": 2107,
      "##ective": 2108,
      "achieve": 2109,
      "powerful": 2110,
      "natural": 2111,
      "period": 2112,
      "violence": 2113,
      "##bon": 2114,
      "enter": 2115,
      "agreement": 2116,
      "##iance": 2117,
      "failed": 2118,
      "expect": 2119,
      "necessary": 2120,
      "demonstr": 2121,
      "Ab": 2122,
      "hear": 2123,
      "she": 2124,
      "conditions": 2125,
      "politicians": 2126,
      "Dem": 2127,
      "makes": 2128,
      "##iver": 2129,
      "prob": 2130,
      "##oh": 2131,
      "No": 2132,
      "taken": 2133,
      "##ains": 2134,
      "neighb": 2135,
      "despite": 2136,
      "class": 2137,
      "until": 2138,
      "##ief": 2139,
      "opposition": 2140,
      "aid": 2141,
      "ask": 2142,
      "four": 2143,
      "house": 2144,
      "Ukraine": 2145,
      "var": 2146,
      "##tract": 2147,
      "##fer": 2148,
      "Gre": 2149,
      "aver": 2150,
      "officials": 2151,
      "legit": 2152,
      "197": 2153,
      "food": 2154,
      "histor": 2155,
      "##illions": 2156,
      "manage": 2157,
      "##irc": 2158,
      "changes": 2159,
      "win": 2160,
      "slow": 2161,
      "fav": 2162,
      "risks": 2163,
      "position": 2164,
      "##aign": 2165,
      "else": 2166,
      "influence": 2167,
      "bar": 2168,
      "rad": 2169,
      "univers": 2170,
      "full": 2171,
      "jobs": 2172,
      "protection": 2173,
      "doub": 2174,
      "challenge": 2175,
      "something": 2176,
      "nothing": 2177,
      "became": 2178,
      "Tod": 2179,
      "kind": 2180,
      "stop": 2181,
      "British": 2182,
      "away": 2183,
      "##ri": 2184,
      "values": 2185,
      "cause": 2186,
      "wealth": 2187,
      "determ": 2188,
      "Today": 2189,
      "Such": 2190,
      "Europeans": 2191,
      "Sp": 2192,
      "rules": 2193,
      "developed": 2194,
      "cand": 2195,
      "production": 2196,
      "##itted": 2197,
      "failure": 2198,
      "Ham": 2199,
      "exc": 2200,
      "really": 2201,
      "loss": 2202,
      "across": 2203,
      "##ording": 2204,
      "give": 2205,
      "campaign": 2206,
      "##ina": 2207,
      "successful": 2208,
      "ren": 2209,
      "inn": 2210,
      "nations": 2211,
      "Fed": 2212,
      "levels": 2213,
      "mis": 2214,
      "single": 2215,
      "read": 2216,
      "report": 2217,
      "encoura": 2218,
      "##eless": 2219,
      "perm": 2220,
      "pass": 2221,
      "constitution": 2222,
      "recover": 2223,
      "##aced": 2224,
      "Britain": 2225,
      "claim": 2226,
      "Democr": 2227,
      "unl": 2228,
      "soon": 2229,
      "popular": 2230,
      "Asian": 2231,
      "##istance": 2232,
      "corruption": 2233,
      "Republic": 2234,
      "##ait": 2235,
      "##aster": 2236,
      "recession": 2237,
      "candid": 2238,
      "things": 2239,
      "lear": 2240,
      "avoid": 2241,
      "adop": 2242,
      "systems": 2243,
      "death": 2244,
      "regard": 2245,
      "total": 2246,
      "kill": 2247,
      "technology": 2248,
      "answ": 2249,
      "Now": 2250,
      "##ended": 2251,
      "##stant": 2252,
      "deficit": 2253,
      "unc": 2254,
      "particip": 2255,
      "months": 2256,
      "moral": 2257,
      "##equ": 2258,
      "##ults": 2259,
      "Commission": 2260,
      "rece": 2261,
      "dest": 2262,
      "five": 2263,
      "youn": 2264,
      "African": 2265,
      "lost": 2266,
      "push": 2267,
      "##aud": 2268,
      "##ison": 2269,
      "##rec": 2270,
      "##ton": 2271,
      "##yn": 2272,
      "finance": 2273,
      "word": 2274,
      "perform": 2275,
      "coal": 2276,
      "revolution": 2277,
      "gre": 2278,
      "feel": 2279,
      "indeed": 2280,
      "##mit": 2281,
      "institution": 2282,
      "several": 2283,
      "Japanese": 2284,
      "created": 2285,
      "broad": 2286,
      "huge": 2287,
      "began": 2288,
      "sustain": 2289,
      "mind": 2290,
      "emissions": 2291,
      "col": 2292,
      "religious": 2293,
      "strategic": 2294,
      "model": 2295,
      "either": 2296,
      "gas": 2297,
      "te": 2298,
      "subs": 2299,
      "terrorism": 2300,
      "aut": 2301,
      "##ored": 2302,
      "stim": 2303,
      "Inst": 2304,
      "let": 2305,
      "net": 2306,
      "improve": 2307,
      "balance": 2308,
      "##lin": 2309,
      "Commun": 2310,
      "measures": 2311,
      "mom": 2312,
      "##ease": 2313,
      "purs": 2314,
      "situation": 2315,
      "##cr": 2316,
      "##ert": 2317,
      "insur": 2318,
      "integration": 2319,
      "legal": 2320,
      "dam": 2321,
      "##erate": 2322,
      "alone": 2323,
      "requires": 2324,
      "##itarian": 2325,
      "Mexico": 2326,
      "counter": 2327,
      "circ": 2328,
      "##ify": 2329,
      "Instead": 2330,
      "areas": 2331,
      "ess": 2332,
      "##unct": 2333,
      "obs": 2334,
      "Although": 2335,
      "Hamas": 2336,
      "##ugg": 2337,
      "nation": 2338,
      "##trib": 2339,
      "altern": 2340,
      "##ously": 2341,
      "parliament": 2342,
      "vote": 2343,
      "norm": 2344,
      "##umption": 2345,
      "stimul": 2346,
      "side": 2347,
      "rising": 2348,
      "land": 2349,
      "clos": 2350,
      "Re": 2351,
      "##yond": 2352,
      "##uted": 2353,
      "beyond": 2354,
      "##yr": 2355,
      "##work": 2356,
      "probably": 2357,
      "International": 2358,
      "##arily": 2359,
      "later": 2360,
      "corpor": 2361,
      "event": 2362,
      "wrong": 2363,
      "live": 2364,
      "##oman": 2365,
      "shif": 2366,
      "debate": 2367,
      "behind": 2368,
      "##ging": 2369,
      "##pin": 2370,
      "sure": 2371,
      "leader": 2372,
      "leading": 2373,
      "surpr": 2374,
      "experi": 2375,
      "pressure": 2376,
      "entire": 2377,
      "Islamic": 2378,
      "##onse": 2379,
      "##irst": 2380,
      "globalization": 2381,
      "##ont": 2382,
      "domin": 2383,
      "##ished": 2384,
      "assets": 2385,
      "wee": 2386,
      "cooperation": 2387,
      "##mb": 2388,
      "competition": 2389,
      "opportunity": 2390,
      "vir": 2391,
      "##apse": 2392,
      "argu": 2393,
      "stock": 2394,
      "##ested": 2395,
      "##owers": 2396,
      "##rought": 2397,
      "response": 2398,
      "##ource": 2399,
      "media": 2400,
      "##unch": 2401,
      "##lose": 2402,
      "defense": 2403,
      "Argent": 2404,
      "sett": 2405,
      "##ows": 2406,
      "depend": 2407,
      "Pe": 2408,
      "confidence": 2409,
      "water": 2410,
      "proper": 2411,
      "15": 2412,
      "Econom": 2413,
      "qual": 2414,
      "increasing": 2415,
      "Fund": 2416,
      "doing": 2417,
      "consequences": 2418,
      "Per": 2419,
      "##res": 2420,
      "##atory": 2421,
      "##action": 2422,
      "den": 2423,
      "exports": 2424,
      "prec": 2425,
      "Gen": 2426,
      "mov": 2427,
      "aim": 2428,
      "propos": 2429,
      "##lies": 2430,
      "respect": 2431,
      "challenges": 2432,
      "##ony": 2433,
      "collapse": 2434,
      "##aining": 2435,
      "impact": 2436,
      "break": 2437,
      "came": 2438,
      "effort": 2439,
      "##ology": 2440,
      "carbon": 2441,
      "Muslim": 2442,
      "First": 2443,
      "conv": 2444,
      "attack": 2445,
      "201": 2446,
      "won": 2447,
      "took": 2448,
      "decline": 2449,
      "school": 2450,
      "funds": 2451,
      "Poland": 2452,
      "confron": 2453,
      "design": 2454,
      "young": 2455,
      "late": 2456,
      "lives": 2457,
      "employment": 2458,
      "Prime": 2459,
      "living": 2460,
      "##ression": 2461,
      "behav": 2462,
      "moment": 2463,
      "##ox": 2464,
      "relationship": 2465,
      "##izations": 2466,
      "activ": 2467,
      "##ological": 2468,
      "present": 2469,
      "Serb": 2470,
      "##igr": 2471,
      "popul": 2472,
      "negotiations": 2473,
      "ensure": 2474,
      "Par": 2475,
      "div": 2476,
      "doc": 2477,
      "50": 2478,
      "close": 2479,
      "host": 2480,
      "##aph": 2481,
      "taking": 2482,
      "##app": 2483,
      "##oz": 2484,
      "##just": 2485,
      "science": 2486,
      "##iveness": 2487,
      "prior": 2488,
      "incent": 2489,
      "##arant": 2490,
      "ill": 2491,
      "willing": 2492,
      "presidential": 2493,
      "##iding": 2494,
      "discuss": 2495,
      "traditional": 2496,
      "sw": 2497,
      "implement": 2498,
      "working": 2499,
      "average": 2500,
      "comes": 2501,
      "solution": 2502,
      "##ension": 2503,
      "Palestinians": 2504,
      "repl": 2505,
      "restr": 2506,
      "##te": 2507,
      "##ung": 2508,
      "##thern": 2509,
      "partners": 2510,
      "##onom": 2511,
      "##ones": 2512,
      "##atively": 2513,
      "goods": 2514,
      "guarant": 2515,
      "ten": 2516,
      "##ins": 2517,
      "##auc": 2518,
      "##ane": 2519,
      "excess": 2520,
      "held": 2521,
      "innov": 2522,
      "##tra": 2523,
      "Security": 2524,
      "favor": 2525,
      "scale": 2526,
      "##erves": 2527,
      "##ledge": 2528,
      "##be": 2529,
      "##oy": 2530,
      "##acity": 2531,
      "2008": 2532,
      "ir": 2533,
      "massive": 2534,
      "Ad": 2535,
      "bond": 2536,
      "having": 2537,
      "char": 2538,
      "evidence": 2539,
      "Be": 2540,
      "##overeign": 2541,
      "surv": 2542,
      "benefit": 2543,
      "##ortunately": 2544,
      "##ots": 2545,
      "initi": 2546,
      "Cong": 2547,
      "prosp": 2548,
      "effects": 2549,
      "quick": 2550,
      "basic": 2551,
      "##aging": 2552,
      "subsid": 2553,
      "##ator": 2554,
      "##ream": 2555,
      "ability": 2556,
      "agric": 2557,
      "agricult": 2558,
      "sav": 2559,
      "amb": 2560,
      "30": 2561,
      "1980": 2562,
      "environment": 2563,
      "top": 2564,
      "export": 2565,
      "employ": 2566,
      "Cons": 2567,
      "##ought": 2568,
      "standards": 2569,
      "conserv": 2570,
      "attention": 2571,
      "Res": 2572,
      "powers": 2573,
      "decisions": 2574,
      "obvious": 2575,
      "status": 2576,
      "experience": 2577,
      "Gaz": 2578,
      "outside": 2579,
      "tra": 2580,
      "ground": 2581,
      "object": 2582,
      "programs": 2583,
      "towards": 2584,
      "brought": 2585,
      "##enda": 2586,
      "miss": 2587,
      "##yc": 2588,
      "##oring": 2589,
      "ul": 2590,
      "reality": 2591,
      "Most": 2592,
      "##ection": 2593,
      "known": 2594,
      "sovereign": 2595,
      "supply": 2596,
      "##ma": 2597,
      "prim": 2598,
      "largest": 2599,
      "##att": 2600,
      "reasons": 2601,
      "deficits": 2602,
      "Bl": 2603,
      "##ler": 2604,
      "##use": 2605,
      "membership": 2606,
      "##ras": 2607,
      "##ecut": 2608,
      "##inary": 2609,
      "independent": 2610,
      "target": 2611,
      "your": 2612,
      "prosper": 2613,
      "##ici": 2614,
      "attacks": 2615,
      "transform": 2616,
      "complet": 2617,
      "expected": 2618,
      "men": 2619,
      "vol": 2620,
      "thought": 2621,
      "Argentina": 2622,
      "##oph": 2623,
      "##ext": 2624,
      "actually": 2625,
      "Kos": 2626,
      "along": 2627,
      "culture": 2628,
      "spread": 2629,
      "predict": 2630,
      "behavior": 2631,
      "Bar": 2632,
      "coming": 2633,
      "results": 2634,
      "sus": 2635,
      "##ees": 2636,
      "answer": 2637,
      "##isl": 2638,
      "largely": 2639,
      "Kosov": 2640,
      "##uing": 2641,
      "immed": 2642,
      "prime": 2643,
      "strugg": 2644,
      "here": 2645,
      "##ification": 2646,
      "capacity": 2647,
      "air": 2648,
      "##ece": 2649,
      "supposed": 2650,
      "##echan": 2651,
      "responsibility": 2652,
      "##ID": 2653,
      "line": 2654,
      "enl": 2655,
      "occup": 2656,
      "##astern": 2657,
      "##akers": 2658,
      "Nations": 2659,
      "##oint": 2660,
      "##ouble": 2661,
      "expand": 2662,
      "building": 2663,
      "##nic": 2664,
      "Treat": 2665,
      "196": 2666,
      "produce": 2667,
      "borrow": 2668,
      "meeting": 2669,
      "independence": 2670,
      "Sw": 2671,
      "everyone": 2672,
      "taxes": 2673,
      "banking": 2674,
      "Dec": 2675,
      "##lig": 2676,
      "##ari": 2677,
      "cases": 2678,
      "##rist": 2679,
      "worse": 2680,
      "limited": 2681,
      "special": 2682,
      "##ipp": 2683,
      "##inal": 2684,
      "contrast": 2685,
      "ign": 2686,
      "allowed": 2687,
      "industry": 2688,
      "radical": 2689,
      "Great": 2690,
      "whole": 2691,
      "fair": 2692,
      "bi": 2693,
      "##opol": 2694,
      "dict": 2695,
      "##itable": 2696,
      "Soc": 2697,
      "##aid": 2698,
      "agenda": 2699,
      "attempt": 2700,
      "mechan": 2701,
      "sent": 2702,
      "six": 2703,
      "##ectual": 2704,
      "appears": 2705,
      "era": 2706,
      "##jects": 2707,
      "family": 2708,
      "talk": 2709,
      "legitim": 2710,
      "Le": 2711,
      "Italy": 2712,
      "General": 2713,
      "##eria": 2714,
      "##ogr": 2715,
      "surp": 2716,
      "cultural": 2717,
      "alternative": 2718,
      "mort": 2719,
      "##sc": 2720,
      "##etic": 2721,
      "attract": 2722,
      "consum": 2723,
      "consumption": 2724,
      "##tructure": 2725,
      "##head": 2726,
      "##ensus": 2727,
      "using": 2728,
      "##retary": 2729,
      "minor": 2730,
      "##pir": 2731,
      "governance": 2732,
      "warming": 2733,
      "environmental": 2734,
      "dangerous": 2735,
      "EC": 2736,
      "due": 2737,
      "reb": 2738,
      "fri": 2739,
      "household": 2740,
      "Eastern": 2741,
      "##aries": 2742,
      "soft": 2743,
      "##men": 2744,
      "Since": 2745,
      "days": 2746,
      "hy": 2747,
      "dollars": 2748,
      "Kosovo": 2749,
      "age": 2750,
      "##uly": 2751,
      "area": 2752,
      "instead": 2753,
      "Leb": 2754,
      "wid": 2755,
      "##ape": 2756,
      "dram": 2757,
      "concerns": 2758,
      "Ma": 2759,
      "territ": 2760,
      "advanced": 2761,
      "art": 2762,
      "respond": 2763,
      "##tions": 2764,
      "##ops": 2765,
      "mess": 2766,
      "clearly": 2767,
      "Treaty": 2768,
      "##enh": 2769,
      "Bal": 2770,
      "path": 2771,
      "##arity": 2772,
      "record": 2773,
      "succeed": 2774,
      "mist": 2775,
      "##cent": 2776,
      "##erc": 2777,
      "depr": 2778,
      "underm": 2779,
      "##itud": 2780,
      "unp": 2781,
      "helped": 2782,
      "appear": 2783,
      "scientific": 2784,
      "funct": 2785,
      "##here": 2786,
      "Only": 2787,
      "deliver": 2788,
      "Georg": 2789,
      "highly": 2790,
      "words": 2791,
      "##wan": 2792,
      "##down": 2793,
      "except": 2794,
      "farm": 2795,
      "##rod": 2796,
      "##undred": 2797,
      "complex": 2798,
      "avail": 2799,
      "easy": 2800,
      "25": 2801,
      "##ites": 2802,
      "offer": 2803,
      "Leban": 2804,
      "Tai": 2805,
      "##atically": 2806,
      "##ectr": 2807,
      "following": 2808,
      "productivity": 2809,
      "11": 2810,
      "Jew": 2811,
      "imper": 2812,
      "commitment": 2813,
      "fuel": 2814,
      "include": 2815,
      "relatively": 2816,
      "basis": 2817,
      "voters": 2818,
      "Des": 2819,
      "expans": 2820,
      "accoun": 2821,
      "susp": 2822,
      "test": 2823,
      "##iated": 2824,
      "thing": 2825,
      "goal": 2826,
      "burd": 2827,
      "boom": 2828,
      "Sept": 2829,
      "hous": 2830,
      "recovery": 2831,
      "September": 2832,
      "blo": 2833,
      "##used": 2834,
      "##osing": 2835,
      "##fact": 2836,
      "movement": 2837,
      "Saud": 2838,
      "tend": 2839,
      "##aul": 2840,
      "##oks": 2841,
      "compr": 2842,
      "assum": 2843,
      "substant": 2844,
      "legisl": 2845,
      "infras": 2846,
      "intellectual": 2847,
      "becoming": 2848,
      "##ikely": 2849,
      "##ternal": 2850,
      "nature": 2851,
      "ethnic": 2852,
      "ult": 2853,
      "Thus": 2854,
      "resol": 2855,
      "terrorist": 2856,
      "Ex": 2857,
      "##urs": 2858,
      "##osp": 2859,
      "above": 2860,
      "merely": 2861,
      "unlikely": 2862,
      "virt": 2863,
      "Acc": 2864,
      "##by": 2865,
      "reserves": 2866,
      "recognize": 2867,
      "Taiwan": 2868,
      "going": 2869,
      "crises": 2870,
      "victory": 2871,
      "launch": 2872,
      "tas": 2873,
      "news": 2874,
      "internal": 2875,
      "previous": 2876,
      "elected": 2877,
      "followed": 2878,
      "##iers": 2879,
      "che": 2880,
      "heav": 2881,
      "established": 2882,
      "forced": 2883,
      "provided": 2884,
      "beginning": 2885,
      "Not": 2886,
      "##ature": 2887,
      "annual": 2888,
      "sell": 2889,
      "accomp": 2890,
      "advant": 2891,
      "organizations": 2892,
      "infrastructure": 2893,
      "Sad": 2894,
      "wants": 2895,
      "##umer": 2896,
      "##ibly": 2897,
      "2000": 2898,
      "mal": 2899,
      "millions": 2900,
      "sanc": 2901,
      "##orn": 2902,
      "intervention": 2903,
      "doubt": 2904,
      "Cold": 2905,
      "##ault": 2906,
      "##ureauc": 2907,
      "##elfare": 2908,
      "creating": 2909,
      "sharp": 2910,
      "##ograph": 2911,
      "##ureaucr": 2912,
      "##imately": 2913,
      "imposs": 2914,
      "nearly": 2915,
      "Govern": 2916,
      "inev": 2917,
      "##iting": 2918,
      "opin": 2919,
      "assoc": 2920,
      "investments": 2921,
      "mot": 2922,
      "##lant": 2923,
      "thous": 2924,
      "##ilities": 2925,
      "18": 2926,
      "Why": 2927,
      "Rev": 2928,
      "bomb": 2929,
      "indic": 2930,
      "##ozy": 2931,
      "##het": 2932,
      "##hood": 2933,
      "poll": 2934,
      "##agn": 2935,
      "relative": 2936,
      "assistance": 2937,
      "societies": 2938,
      "institutional": 2939,
      "hundred": 2940,
      "vast": 2941,
      "##med": 2942,
      "chance": 2943,
      "##raf": 2944,
      "office": 2945,
      "2001": 2946,
      "list": 2947,
      "##ban": 2948,
      "##uk": 2949,
      "twent": 2950,
      "Second": 2951,
      "Sim": 2952,
      "##acies": 2953,
      "caused": 2954,
      "management": 2955,
      "mechanism": 2956,
      "##iquid": 2957,
      "##uck": 2958,
      "critic": 2959,
      "Sark": 2960,
      "happ": 2961,
      "Syr": 2962,
      "##ients": 2963,
      "products": 2964,
      "National": 2965,
      "##sy": 2966,
      "center": 2967,
      "suggest": 2968,
      "##crib": 2969,
      "expansion": 2970,
      "tro": 2971,
      "turned": 2972,
      "authorities": 2973,
      "40": 2974,
      "bureaucr": 2975,
      "uncertain": 2976,
      "Sarkozy": 2977,
      "company": 2978,
      "stimulus": 2979,
      "45": 2980,
      "fre": 2981,
      "welfare": 2982,
      "##acter": 2983,
      "buy": 2984,
      "personal": 2985,
      "surplus": 2986,
      "actions": 2987,
      "throughout": 2988,
      "cal": 2989,
      "rein": 2990,
      "orig": 2991,
      "##ourn": 2992,
      "ideas": 2993,
      "May": 2994,
      "Rec": 2995,
      "Tw": 2996,
      "link": 2997,
      "questions": 2998,
      "sal": 2999,
      "required": 3000,
      "George": 3001,
      "border": 3002,
      "Gaza": 3003,
      "##put": 3004,
      "##ilt": 3005,
      "ste": 3006,
      "2009": 3007,
      "ECB": 3008,
      "%.": 3009,
      "##verse": 3010,
      "unf": 3011,
      "knowledge": 3012,
      "larger": 3013,
      "Kh": 3014,
      "##dom": 3015,
      "forward": 3016,
      "regions": 3017,
      "boost": 3018,
      "Secretary": 3019,
      "simple": 3020,
      "road": 3021,
      "disease": 3022,
      "choice": 3023,
      "summit": 3024,
      "super": 3025,
      "##ashing": 3026,
      "electr": 3027,
      "therefore": 3028,
      "insurance": 3029,
      "impossible": 3030,
      "Greece": 3031,
      "coalition": 3032,
      "Congress": 3033,
      "##ufact": 3034,
      "Christ": 3035,
      "positive": 3036,
      "principle": 3037,
      "performance": 3038,
      "Bec": 3039,
      "Indian": 3040,
      "adjust": 3041,
      "thinking": 3042,
      "##arter": 3043,
      "##asion": 3044,
      "##une": 3045,
      "##augh": 3046,
      "announ": 3047,
      "draw": 3048,
      "##olid": 3049,
      "parts": 3050,
      "##aterial": 3051,
      "project": 3052,
      "trust": 3053,
      "cuts": 3054,
      "##aria": 3055,
      "##ented": 3056,
      "certainly": 3057,
      "cover": 3058,
      "destro": 3059,
      "incentives": 3060,
      "mid": 3061,
      "##aper": 3062,
      "events": 3063,
      "transition": 3064,
      "##ocks": 3065,
      "ord": 3066,
      "enem": 3067,
      "prep": 3068,
      "typ": 3069,
      "frame": 3070,
      "truth": 3071,
      "Gu": 3072,
      "bail": 3073,
      "fell": 3074,
      "estim": 3075,
      "cle": 3076,
      "external": 3077,
      "##angu": 3078,
      "##ortion": 3079,
      "2007": 3080,
      "restrict": 3081,
      "source": 3082,
      "##imself": 3083,
      "phys": 3084,
      "promote": 3085,
      "Col": 3086,
      "harm": 3087,
      "himself": 3088,
      "elsewhere": 3089,
      "pain": 3090,
      "renew": 3091,
      "sound": 3092,
      "tel": 3093,
      "allies": 3094,
      "individuals": 3095,
      "quickly": 3096,
      "100": 3097,
      "neither": 3098,
      "##ensions": 3099,
      "elimin": 3100,
      "Clint": 3101,
      "Dep": 3102,
      "Sch": 3103,
      "Tal": 3104,
      "ge": 3105,
      "vital": 3106,
      "##arr": 3107,
      "##aces": 3108,
      "trying": 3109,
      "generation": 3110,
      "manufact": 3111,
      "available": 3112,
      "dyn": 3113,
      "middle": 3114,
      "##ull": 3115,
      "withd": 3116,
      "purp": 3117,
      "opinion": 3118,
      "Ag": 3119,
      "##acro": 3120,
      "economists": 3121,
      "separ": 3122,
      "Develop": 3123,
      "Clinton": 3124,
      "sens": 3125,
      "##fully": 3126,
      "argue": 3127,
      "confront": 3128,
      "Can": 3129,
      "##uses": 3130,
      "justice": 3131,
      "imag": 3132,
      "transpar": 3133,
      "sometimes": 3134,
      "Despite": 3135,
      "bro": 3136,
      "size": 3137,
      "2005": 3138,
      "constit": 3139,
      "police": 3140,
      "##airs": 3141,
      "laws": 3142,
      "Ber": 3143,
      "Med": 3144,
      "fig": 3145,
      "tell": 3146,
      "##lier": 3147,
      "prol": 3148,
      "committed": 3149,
      "consensus": 3150,
      "repe": 3151,
      "uns": 3152,
      "weaken": 3153,
      "Because": 3154,
      "##ata": 3155,
      "##utes": 3156,
      "##oughly": 3157,
      "anything": 3158,
      "capitalism": 3159,
      "refer": 3160,
      "critical": 3161,
      "Social": 3162,
      "legitimacy": 3163,
      "Mon": 3164,
      "fix": 3165,
      "193": 3166,
      "technologies": 3167,
      "Lib": 3168,
      "vul": 3169,
      "##lying": 3170,
      "although": 3171,
      "##ope": 3172,
      "wars": 3173,
      "reducing": 3174,
      "##idency": 3175,
      "##oses": 3176,
      "defe": 3177,
      "liquid": 3178,
      "mob": 3179,
      "spir": 3180,
      "talks": 3181,
      "##leg": 3182,
      "reven": 3183,
      "Muslims": 3184,
      "quality": 3185,
      "Saudi": 3186,
      "material": 3187,
      "privat": 3188,
      "judg": 3189,
      "famil": 3190,
      "12": 3191,
      "bub": 3192,
      "##entially": 3193,
      "2004": 3194,
      "changed": 3195,
      "corporate": 3196,
      "Ever": 3197,
      "opportunities": 3198,
      "##ique": 3199,
      "Both": 3200,
      "gl": 3201,
      "rat": 3202,
      "troops": 3203,
      "%,": 3204,
      "divid": 3205,
      "2006": 3206,
      "##lusion": 3207,
      "##igration": 3208,
      "Mal": 3209,
      "Roman": 3210,
      "##oot": 3211,
      "stable": 3212,
      "commer": 3213,
      "belief": 3214,
      "cur": 3215,
      "langu": 3216,
      "union": 3217,
      "apprec": 3218,
      "seemed": 3219,
      "##argement": 3220,
      "authority": 3221,
      "Georgia": 3222,
      "theory": 3223,
      "sty": 3224,
      "Unf": 3225,
      "##empor": 3226,
      "happened": 3227,
      "People": 3228,
      "ahead": 3229,
      "sold": 3230,
      "##ober": 3231,
      "##kn": 3232,
      "##dd": 3233,
      "continued": 3234,
      "perman": 3235,
      "Lebanon": 3236,
      "vulner": 3237,
      "pan": 3238,
      "increases": 3239,
      "shift": 3240,
      "##ya": 3241,
      "##wide": 3242,
      "##makers": 3243,
      "efficient": 3244,
      "raise": 3245,
      "Perhaps": 3246,
      "regulation": 3247,
      "army": 3248,
      "try": 3249,
      "paid": 3250,
      "stabil": 3251,
      "loans": 3252,
      "solid": 3253,
      "historical": 3254,
      "essential": 3255,
      "II": 3256,
      "cell": 3257,
      "vision": 3258,
      "##inct": 3259,
      "worth": 3260,
      "responsible": 3261,
      "diplomatic": 3262,
      "mortg": 3263,
      "fed": 3264,
      "##inated": 3265,
      "##enced": 3266,
      "differences": 3267,
      "neighbors": 3268,
      "understanding": 3269,
      "Global": 3270,
      "round": 3271,
      "sides": 3272,
      "##licit": 3273,
      "creation": 3274,
      "Spain": 3275,
      "##lements": 3276,
      "sufficient": 3277,
      "worr": 3278,
      "service": 3279,
      "easily": 3280,
      "##ohn": 3281,
      "character": 3282,
      "Unfortunately": 3283,
      "extra": 3284,
      "##andon": 3285,
      "outcome": 3286,
      "reduced": 3287,
      "skill": 3288,
      "normal": 3289,
      "withdraw": 3290,
      "distrib": 3291,
      "##oing": 3292,
      "##econom": 3293,
      "##elt": 3294,
      "##emic": 3295,
      "savings": 3296,
      "##val": 3297,
      "upon": 3298,
      "fully": 3299,
      "##force": 3300,
      "function": 3301,
      "housing": 3302,
      "Mos": 3303,
      "##atever": 3304,
      "alliance": 3305,
      "compar": 3306,
      "currently": 3307,
      "reflect": 3308,
      "engine": 3309,
      "prosperity": 3310,
      "difference": 3311,
      "existing": 3312,
      "##sych": 3313,
      "fast": 3314,
      "##ean": 3315,
      "##reet": 3316,
      "cruc": 3317,
      "continues": 3318,
      "started": 3319,
      "Communist": 3320,
      "dynam": 3321,
      "##ula": 3322,
      "dism": 3323,
      "##ogue": 3324,
      "factors": 3325,
      "competit": 3326,
      "sustainable": 3327,
      "ey": 3328,
      "journ": 3329,
      "coup": 3330,
      "proposed": 3331,
      "suggests": 3332,
      "batt": 3333,
      "abandon": 3334,
      "aggr": 3335,
      "##rants": 3336,
      "competitive": 3337,
      "However": 3338,
      "damage": 3339,
      "crimes": 3340,
      "Iranian": 3341,
      "enterpr": 3342,
      "sanctions": 3343,
      "##oud": 3344,
      "join": 3345,
      "King": 3346,
      "macro": 3347,
      "##irac": 3348,
      "economics": 3349,
      "appar": 3350,
      "importance": 3351,
      "treatment": 3352,
      "##amb": 3353,
      "usually": 3354,
      "week": 3355,
      "His": 3356,
      "##ols": 3357,
      "politically": 3358,
      "circum": 3359,
      "mut": 3360,
      "##ints": 3361,
      "sup": 3362,
      "enorm": 3363,
      "enlargement": 3364,
      "sat": 3365,
      "enh": 3366,
      "unw": 3367,
      "struggle": 3368,
      "According": 3369,
      "task": 3370,
      "cyc": 3371,
      "``": 3372,
      "##way": 3373,
      "##dam": 3374,
      "isol": 3375,
      "abroad": 3376,
      "currencies": 3377,
      "continent": 3378,
      "meaning": 3379,
      "Its": 3380,
      "Sc": 3381,
      "##OR": 3382,
      "according": 3383,
      "claims": 3384,
      "##lantic": 3385,
      "gain": 3386,
      "lose": 3387,
      "##he": 3388,
      "tried": 3389,
      "grad": 3390,
      "presidency": 3391,
      "comprom": 3392,
      "story": 3393,
      "drugs": 3394,
      "##has": 3395,
      "Their": 3396,
      "diss": 3397,
      "coord": 3398,
      "flex": 3399,
      "went": 3400,
      "##ugh": 3401,
      "firm": 3402,
      "directly": 3403,
      "principles": 3404,
      "eventually": 3405,
      "bonds": 3406,
      "Similar": 3407,
      "jud": 3408,
      "vo": 3409,
      "##set": 3410,
      "mostly": 3411,
      "State": 3412,
      "amount": 3413,
      "achieved": 3414,
      "engage": 3415,
      "candidate": 3416,
      "aimed": 3417,
      "wage": 3418,
      "##aff": 3419,
      "##oes": 3420,
      "enj": 3421,
      "asset": 3422,
      "afford": 3423,
      "limits": 3424,
      "Economic": 3425,
      "##orters": 3426,
      "deg": 3427,
      "agreed": 3428,
      "Iraqi": 3429,
      "matters": 3430,
      "1970": 3431,
      "60": 3432,
      "NE": 3433,
      "various": 3434,
      "My": 3435,
      "hands": 3436,
      "name": 3437,
      "##jected": 3438,
      "194": 3439,
      "Nig": 3440,
      "hon": 3441,
      "##cer": 3442,
      "dead": 3443,
      "anal": 3444,
      "##umb": 3445,
      "reduction": 3446,
      "Bel": 3447,
      "prefer": 3448,
      "Internet": 3449,
      "Revolution": 3450,
      "speak": 3451,
      "##ij": 3452,
      "express": 3453,
      "framework": 3454,
      "Washing": 3455,
      "##ges": 3456,
      "##AR": 3457,
      "direction": 3458,
      "Talib": 3459,
      "Washington": 3460,
      "data": 3461,
      "inequ": 3462,
      "becomes": 3463,
      "scen": 3464,
      "structural": 3465,
      "body": 3466,
      "##fect": 3467,
      "everything": 3468,
      "involved": 3469,
      "borders": 3470,
      "December": 3471,
      "##onents": 3472,
      "output": 3473,
      "##ollah": 3474,
      "Taliban": 3475,
      "Krem": 3476,
      "##af": 3477,
      "communist": 3478,
      "standard": 3479,
      "produced": 3480,
      "identity": 3481,
      "pack": 3482,
      "forg": 3483,
      "conn": 3484,
      "severe": 3485,
      "activities": 3486,
      "farmers": 3487,
      "Kremlin": 3488,
      "##iciency": 3489,
      "crucial": 3490,
      "John": 3491,
      "field": 3492,
      "roughly": 3493,
      "carr": 3494,
      "save": 3495,
      "equal": 3496,
      "reached": 3497,
      "er": 3498,
      "##ased": 3499,
      "Those": 3500,
      "prison": 3501,
      "From": 3502,
      "Just": 3503,
      "##unt": 3504,
      "steps": 3505,
      "Given": 3506,
      "##ired": 3507,
      "leave": 3508,
      "goes": 3509,
      "conduct": 3510,
      "##rimin": 3511,
      "##nes": 3512,
      "##ott": 3513,
      "worldwide": 3514,
      "provides": 3515,
      "facing": 3516,
      "limit": 3517,
      "shows": 3518,
      "speech": 3519,
      "bound": 3520,
      "fa": 3521,
      "##eff": 3522,
      "##iable": 3523,
      "##gest": 3524,
      "##reh": 3525,
      "##oms": 3526,
      "##ulated": 3527,
      "comput": 3528,
      "providing": 3529,
      "imbal": 3530,
      "Federal": 3531,
      "argument": 3532,
      "flo": 3533,
      "worst": 3534,
      "extreme": 3535,
      "burden": 3536,
      "##economic": 3537,
      "Cour": 3538,
      "##essed": 3539,
      "describ": 3540,
      "armed": 3541,
      "heart": 3542,
      "asked": 3543,
      "Syria": 3544,
      "psych": 3545,
      "##wise": 3546,
      "##zone": 3547,
      "##ender": 3548,
      "demands": 3549,
      "minim": 3550,
      "structure": 3551,
      "Finally": 3552,
      "losses": 3553,
      "widely": 3554,
      "thousands": 3555,
      "Str": 3556,
      "Will": 3557,
      "##pread": 3558,
      "Indones": 3559,
      "electoral": 3560,
      "correct": 3561,
      "advoc": 3562,
      "##idespread": 3563,
      "rapidly": 3564,
      "designed": 3565,
      "style": 3566,
      "NEW": 3567,
      "ep": 3568,
      "##cow": 3569,
      "##50": 3570,
      "##igrants": 3571,
      "front": 3572,
      "arms": 3573,
      "built": 3574,
      "Serbia": 3575,
      "Moscow": 3576,
      "secure": 3577,
      "victims": 3578,
      "sought": 3579,
      "##cing": 3580,
      "##ety": 3581,
      "projects": 3582,
      "##izes": 3583,
      "goals": 3584,
      "##itude": 3585,
      "##port": 3586,
      "remark": 3587,
      "##entr": 3588,
      "Russians": 3589,
      "collective": 3590,
      "cat": 3591,
      "spend": 3592,
      "effectively": 3593,
      "Saddam": 3594,
      "destroy": 3595,
      "Other": 3596,
      "spent": 3597,
      "related": 3598,
      "democracies": 3599,
      "negative": 3600,
      "conflicts": 3601,
      "immediate": 3602,
      "core": 3603,
      "lot": 3604,
      "takes": 3605,
      "widespread": 3606,
      "businesses": 3607,
      "property": 3608,
      "wages": 3609,
      "##ague": 3610,
      "poorest": 3611,
      "##holders": 3612,
      "fighting": 3613,
      "Swed": 3614,
      "saving": 3615,
      "space": 3616,
      "percent": 3617,
      "emphas": 3618,
      "threats": 3619,
      "##aring": 3620,
      "meant": 3621,
      "visit": 3622,
      "team": 3623,
      "commerc": 3624,
      "Court": 3625,
      "crimin": 3626,
      "specific": 3627,
      "encourage": 3628,
      "During": 3629,
      "lending": 3630,
      "##min": 3631,
      "plans": 3632,
      "appropr": 3633,
      "tradition": 3634,
      "biggest": 3635,
      "esc": 3636,
      "mand": 3637,
      "##to": 3638,
      "##reg": 3639,
      "whom": 3640,
      "Constitution": 3641,
      "practice": 3642,
      "##emporary": 3643,
      "##acts": 3644,
      "concentr": 3645,
      "treaty": 3646,
      "scientists": 3647,
      "subsidies": 3648,
      "Cz": 3649,
      "Never": 3650,
      "##ON": 3651,
      "##illing": 3652,
      "insist": 3653,
      "Every": 3654,
      "Egy": 3655,
      "Here": 3656,
      "##ke": 3657,
      "reve": 3658,
      "##reasury": 3659,
      "anyone": 3660,
      "occurr": 3661,
      "Blair": 3662,
      "consumers": 3663,
      "Egypt": 3664,
      "Br": 3665,
      "Mar": 3666,
      "financing": 3667,
      "concerned": 3668,
      "hour": 3669,
      "##ita": 3670,
      "##iles": 3671,
      "2003": 3672,
      "extent": 3673,
      "ruling": 3674,
      "safe": 3675,
      "constitutional": 3676,
      "El": 3677,
      "giving": 3678,
      "##igence": 3679,
      "acqu": 3680,
      "possibility": 3681,
      "earlier": 3682,
      "innovation": 3683,
      "game": 3684,
      "hit": 3685,
      "##ames": 3686,
      "execut": 3687,
      "shown": 3688,
      "stronger": 3689,
      "agricultural": 3690,
      "sil": 3691,
      "##erence": 3692,
      "mainly": 3693,
      "discover": 3694,
      "type": 3695,
      "gave": 3696,
      "nar": 3697,
      "prem": 3698,
      "addition": 3699,
      "views": 3700,
      "Barack": 3701,
      "Monetary": 3702,
      "Hung": 3703,
      "##ete": 3704,
      "trial": 3705,
      "##uman": 3706,
      "contrary": 3707,
      "terrorists": 3708,
      "falling": 3709,
      "1989": 3710,
      "ones": 3711,
      "calls": 3712,
      "sectors": 3713,
      "organization": 3714,
      "advantage": 3715,
      "enormous": 3716,
      "##stances": 3717,
      "prove": 3718,
      "owners": 3719,
      "instru": 3720,
      "root": 3721,
      "study": 3722,
      "Organ": 3723,
      "permanent": 3724,
      "Und": 3725,
      "wish": 3726,
      "charg": 3727,
      "block": 3728,
      "ready": 3729,
      "##hetor": 3730,
      "language": 3731,
      "##ional": 3732,
      "elite": 3733,
      "serve": 3734,
      "log": 3735,
      "wide": 3736,
      "zone": 3737,
      "##inent": 3738,
      "##theless": 3739,
      "supported": 3740,
      "below": 3741,
      "multilateral": 3742,
      "adopted": 3743,
      "rhetor": 3744,
      "ineff": 3745,
      "oblig": 3746,
      "##ties": 3747,
      "##eth": 3748,
      "##vert": 3749,
      "communities": 3750,
      "liberalization": 3751,
      "journal": 3752,
      "compens": 3753,
      "seeking": 3754,
      "candidates": 3755,
      "Parliament": 3756,
      "ordinary": 3757,
      "commercial": 3758,
      "Czech": 3759,
      "Am": 3760,
      "gold": 3761,
      "told": 3762,
      "resist": 3763,
      "smaller": 3764,
      "getting": 3765,
      "##iversity": 3766,
      "causes": 3767,
      "sovereignty": 3768,
      "Development": 3769,
      "Ire": 3770,
      "##vail": 3771,
      "##orb": 3772,
      "##enth": 3773,
      "crime": 3774,
      "##rown": 3775,
      "##oke": 3776,
      "Def": 3777,
      "##mber": 3778,
      "##iety": 3779,
      "improved": 3780,
      "dictators": 3781,
      "Ireland": 3782,
      "yield": 3783,
      "concept": 3784,
      "universal": 3785,
      "Over": 3786,
      "cross": 3787,
      "marg": 3788,
      "##rel": 3789,
      "entr": 3790,
      "CO": 3791,
      "Jan": 3792,
      "rural": 3793,
      "##AN": 3794,
      "exerc": 3795,
      "##iferation": 3796,
      "compared": 3797,
      "regimes": 3798,
      "Trade": 3799,
      "ultimately": 3800,
      "hundreds": 3801,
      "Sud": 3802,
      "cities": 3803,
      "der": 3804,
      "##nam": 3805,
      "recon": 3806,
      "secular": 3807,
      "policymakers": 3808,
      "communism": 3809,
      "argued": 3810,
      "diplomacy": 3811,
      "substantial": 3812,
      "Our": 3813,
      "light": 3814,
      "##itical": 3815,
      "##repr": 3816,
      "##truction": 3817,
      "trib": 3818,
      "trillion": 3819,
      "##aves": 3820,
      "safety": 3821,
      "2010": 3822,
      "##omed": 3823,
      "shared": 3824,
      "##itting": 3825,
      "communic": 3826,
      "seriously": 3827,
      "students": 3828,
      "received": 3829,
      "city": 3830,
      "watch": 3831,
      "lesson": 3832,
      "affairs": 3833,
      "Korean": 3834,
      "Turkish": 3835,
      "authoritarian": 3836,
      "Hong": 3837,
      "gap": 3838,
      "##anks": 3839,
      "worked": 3840,
      "##lished": 3841,
      "profession": 3842,
      "regulatory": 3843,
      "Colomb": 3844,
      "hor": 3845,
      "sources": 3846,
      "##hib": 3847,
      "perce": 3848,
      "destruction": 3849,
      "flows": 3850,
      "industries": 3851,
      "##while": 3852,
      "clean": 3853,
      "dream": 3854,
      "sou": 3855,
      "##adays": 3856,
      "stage": 3857,
      "learn": 3858,
      "Indonesia": 3859,
      "squ": 3860,
      "##urch": 3861,
      "##appe": 3862,
      "imposed": 3863,
      "additional": 3864,
      "dial": 3865,
      "##amed": 3866,
      "##raft": 3867,
      "consist": 3868,
      "agreements": 3869,
      "conservative": 3870,
      "Man": 3871,
      "##essive": 3872,
      "depends": 3873,
      "expectations": 3874,
      "electric": 3875,
      "Similarly": 3876,
      "promises": 3877,
      "eurozone": 3878,
      "##abilities": 3879,
      "learned": 3880,
      "macroeconomic": 3881,
      "circumstances": 3882,
      "symb": 3883,
      "surve": 3884,
      "liquidity": 3885,
      "Bur": 3886,
      "##iction": 3887,
      "Christian": 3888,
      "Vene": 3889,
      "gains": 3890,
      "saw": 3891,
      "1997": 3892,
      "peaceful": 3893,
      "absence": 3894,
      "households": 3895,
      "Two": 3896,
      "Venez": 3897,
      "##eh": 3898,
      "##lad": 3899,
      "##isely": 3900,
      "##osn": 3901,
      "sex": 3902,
      "factor": 3903,
      "Cub": 3904,
      "final": 3905,
      "forms": 3906,
      "Venezuel": 3907,
      "Kong": 3908,
      "lies": 3909,
      "##body": 3910,
      "solutions": 3911,
      "pattern": 3912,
      "closer": 3913,
      "prospect": 3914,
      "friends": 3915,
      "##lands": 3916,
      "##uff": 3917,
      "##ulate": 3918,
      "promise": 3919,
      "arrange": 3920,
      "anim": 3921,
      "defend": 3922,
      "1999": 3923,
      "wanted": 3924,
      "parliamentary": 3925,
      "priority": 3926,
      "guarantee": 3927,
      "excessive": 3928,
      "Key": 3929,
      "##pect": 3930,
      "##mark": 3931,
      "greatest": 3932,
      "everywhere": 3933,
      "blame": 3934,
      "flow": 3935,
      "Democratic": 3936,
      "March": 3937,
      "cust": 3938,
      "pub": 3939,
      "##asc": 3940,
      "react": 3941,
      "chief": 3942,
      "adap": 3943,
      "divers": 3944,
      "trading": 3945,
      "initiative": 3946,
      "Gree": 3947,
      "Tib": 3948,
      "vers": 3949,
      "wel": 3950,
      "##EC": 3951,
      "##ishing": 3952,
      "default": 3953,
      "opening": 3954,
      "##lied": 3955,
      "##pl": 3956,
      "prevail": 3957,
      "2002": 3958,
      "points": 3959,
      "managed": 3960,
      "book": 3961,
      "knows": 3962,
      "numbers": 3963,
      "strengthen": 3964,
      "operations": 3965,
      "Organization": 3966,
      "pun": 3967,
      "surr": 3968,
      "##enn": 3969,
      "thereby": 3970,
      "court": 3971,
      "black": 3972,
      "controls": 3973,
      "Tibet": 3974,
      "Ky": 3975,
      "wind": 3976,
      "##ero": 3977,
      "consumer": 3978,
      "prepared": 3979,
      "##know": 3980,
      "battle": 3981,
      "expend": 3982,
      "medical": 3983,
      "spirit": 3984,
      "##sh": 3985,
      "##MB": 3986,
      "agencies": 3987,
      "places": 3988,
      "deeply": 3989,
      "killed": 3990,
      "participation": 3991,
      "appropriate": 3992,
      "eight": 3993,
      "##lav": 3994,
      "##icro": 3995,
      "##elts": 3996,
      "##ancing": 3997,
      "Ass": 3998,
      "secur": 3999,
      "purch": 4000,
      "wait": 4001,
      "faces": 4002,
      "message": 4003,
      "York": 4004,
      "rely": 4005,
      "##aled": 4006,
      "stake": 4007,
      "unless": 4008,
      "monit": 4009,
      "looks": 4010,
      "autom": 4011,
      "weeks": 4012,
      "##bollah": 4013,
      "##ann": 4014,
      "command": 4015,
      "owing": 4016,
      "subject": 4017,
      "recognized": 4018,
      "optim": 4019,
      "partnership": 4020,
      "primary": 4021,
      "vulnerable": 4022,
      "federal": 4023,
      "Cop": 4024,
      "Last": 4025,
      "Nob": 4026,
      "Treasury": 4027,
      "acknow": 4028,
      "1998": 4029,
      "Hez": 4030,
      "considered": 4031,
      "Lond": 4032,
      "Yelts": 4033,
      "##uary": 4034,
      "finally": 4035,
      "decided": 4036,
      "Israelis": 4037,
      "instability": 4038,
      "fears": 4039,
      "religion": 4040,
      "reflects": 4041,
      "meth": 4042,
      "faith": 4043,
      "imbalances": 4044,
      "London": 4045,
      "Yeltsin": 4046,
      "##tic": 4047,
      "##sk": 4048,
      "##stand": 4049,
      "##anted": 4050,
      "assess": 4051,
      "manag": 4052,
      "base": 4053,
      "remained": 4054,
      "##ysis": 4055,
      "targets": 4056,
      "##reprene": 4057,
      "expendit": 4058,
      "CA": 4059,
      "Nove": 4060,
      "sel": 4061,
      "sort": 4062,
      "weakness": 4063,
      "blood": 4064,
      "rhetoric": 4065,
      "Keynes": 4066,
      "Hezbollah": 4067,
      "November": 4068,
      "Wall": 4069,
      "says": 4070,
      "##iant": 4071,
      "##going": 4072,
      "##ze": 4073,
      "Third": 4074,
      "imports": 4075,
      "commod": 4076,
      "presence": 4077,
      "equity": 4078,
      "accepted": 4079,
      "bilateral": 4080,
      "##GE": 4081,
      "reject": 4082,
      "##imb": 4083,
      "monopol": 4084,
      "promised": 4085,
      "believed": 4086,
      "affect": 4087,
      "measure": 4088,
      "##line": 4089,
      "efficiency": 4090,
      "##whel": 4091,
      "Under": 4092,
      "June": 4093,
      "range": 4094,
      "##oto": 4095,
      "hardly": 4096,
      "generally": 4097,
      "Nevertheless": 4098,
      "##IN": 4099,
      "distr": 4100,
      "activity": 4101,
      "conclud": 4102,
      "violent": 4103,
      "explain": 4104,
      "combined": 4105,
      "vac": 4106,
      "##urb": 4107,
      "suffering": 4108,
      "YOR": 4109,
      "unilateral": 4110,
      "compreh": 4111,
      "protests": 4112,
      "proposal": 4113,
      "YORK": 4114,
      "mix": 4115,
      "##ada": 4116,
      "frag": 4117,
      "disaster": 4118,
      "overwhel": 4119,
      "offers": 4120,
      "profits": 4121,
      "##eases": 4122,
      "##uous": 4123,
      "inher": 4124,
      "##itter": 4125,
      "earn": 4126,
      "raised": 4127,
      "Prot": 4128,
      "involve": 4129,
      "Eng": 4130,
      "announced": 4131,
      "Bosn": 4132,
      "rational": 4133,
      "##wor": 4134,
      "##olic": 4135,
      "star": 4136,
      "impose": 4137,
      "##agen": 4138,
      "Without": 4139,
      "minority": 4140,
      "Ph": 4141,
      "ed": 4142,
      "wond": 4143,
      "##eda": 4144,
      "##roduc": 4145,
      "##uty": 4146,
      "expensive": 4147,
      "medic": 4148,
      "played": 4149,
      "displ": 4150,
      "colon": 4151,
      "bubble": 4152,
      "enjoy": 4153,
      "##inks": 4154,
      "##ifying": 4155,
      "##ittee": 4156,
      "helping": 4157,
      "inevitable": 4158,
      "families": 4159,
      "January": 4160,
      "14": 4161,
      "double": 4162,
      "appoint": 4163,
      "moderate": 4164,
      "entreprene": 4165,
      "looking": 4166,
      "divided": 4167,
      "inequality": 4168,
      "AID": 4169,
      "faster": 4170,
      "##ef": 4171,
      "partly": 4172,
      "patients": 4173,
      "Financ": 4174,
      "prospects": 4175,
      "Bol": 4176,
      "Mil": 4177,
      "##la": 4178,
      "shock": 4179,
      "disappe": 4180,
      "bankrupt": 4181,
      "driven": 4182,
      "movements": 4183,
      "illeg": 4184,
      "competitiveness": 4185,
      "narrow": 4186,
      "Qa": 4187,
      "got": 4188,
      "vill": 4189,
      "##anda": 4190,
      "##unn": 4191,
      "overall": 4192,
      "defl": 4193,
      "capita": 4194,
      "genu": 4195,
      "option": 4196,
      "##enhagen": 4197,
      "frequ": 4198,
      "Copenhagen": 4199,
      "Financial": 4200,
      "##ko": 4201,
      "##ading": 4202,
      "secret": 4203,
      "quite": 4204,
      "##ommun": 4205,
      "legitimate": 4206,
      "pursue": 4207,
      "associated": 4208,
      ".)": 4209,
      "16": 4210,
      "##astr": 4211,
      "trend": 4212,
      "consolid": 4213,
      "quarter": 4214,
      "discipl": 4215,
      "technical": 4216,
      "compromise": 4217,
      "convention": 4218,
      "truly": 4219,
      "implic": 4220,
      "changing": 4221,
      "defeat": 4222,
      "dialogue": 4223,
      "AIDS": 4224,
      "Fore": 4225,
      "lat": 4226,
      "undert": 4227,
      "amoun": 4228,
      "running": 4229,
      "replace": 4230,
      "Qaeda": 4231,
      "Gul": 4232,
      "cash": 4233,
      "investig": 4234,
      "ended": 4235,
      "Arabia": 4236,
      "focused": 4237,
      "joint": 4238,
      "urban": 4239,
      "Reserve": 4240,
      "##uries": 4241,
      "explo": 4242,
      "complic": 4243,
      "offic": 4244,
      "agriculture": 4245,
      "occupation": 4246,
      "Mao": 4247,
      "Comp": 4248,
      "Mr": 4249,
      "foot": 4250,
      "##rog": 4251,
      "bear": 4252,
      "sudd": 4253,
      "##rage": 4254,
      "##ife": 4255,
      "context": 4256,
      "decide": 4257,
      "active": 4258,
      "distinct": 4259,
      "structures": 4260,
      "demonstrated": 4261,
      "docu": 4262,
      "Foreign": 4263,
      "sudden": 4264,
      "Pl": 4265,
      "search": 4266,
      "##hab": 4267,
      "##IV": 4268,
      "##uit": 4269,
      "worry": 4270,
      "dramatic": 4271,
      "##aught": 4272,
      "Se": 4273,
      "nationalism": 4274,
      "fulf": 4275,
      "ministers": 4276,
      "born": 4277,
      "##ador": 4278,
      "trig": 4279,
      "resc": 4280,
      "Chile": 4281,
      "remember": 4282,
      "desire": 4283,
      "solidarity": 4284,
      "Sudan": 4285,
      "Greek": 4286,
      "##usal": 4287,
      "alle": 4288,
      "Where": 4289,
      "genetic": 4290,
      "##irect": 4291,
      "useful": 4292,
      "controlled": 4293,
      "refuge": 4294,
      "transparency": 4295,
      "##utch": 4296,
      "##usion": 4297,
      "##ayed": 4298,
      "unable": 4299,
      "offered": 4300,
      "continuing": 4301,
      "Palestine": 4302,
      "construct": 4303,
      "Beij": 4304,
      "repeated": 4305,
      "degree": 4306,
      "80": 4307,
      "fire": 4308,
      "##iff": 4309,
      "##uan": 4310,
      "works": 4311,
      "capt": 4312,
      "accel": 4313,
      "##empts": 4314,
      "Beijing": 4315,
      "17": 4316,
      "Anot": 4317,
      "##turn": 4318,
      "lever": 4319,
      "##idents": 4320,
      "declared": 4321,
      "determined": 4322,
      "schools": 4323,
      "launched": 4324,
      "Gr": 4325,
      "Mush": 4326,
      "##eck": 4327,
      "##iders": 4328,
      "Consider": 4329,
      "unpre": 4330,
      "revenues": 4331,
      "dictatorship": 4332,
      "Another": 4333,
      "har": 4334,
      "##iately": 4335,
      "##endum": 4336,
      "payments": 4337,
      "1960": 4338,
      "Mushar": 4339,
      "gone": 4340,
      "rob": 4341,
      "diseases": 4342,
      "highest": 4343,
      "credibility": 4344,
      "sustained": 4345,
      "construction": 4346,
      "travel": 4347,
      "accounts": 4348,
      "Nigeria": 4349,
      "Co": 4350,
      "owned": 4351,
      "Once": 4352,
      "practices": 4353,
      "Balk": 4354,
      "mach": 4355,
      "##pay": 4356,
      "options": 4357,
      "Jews": 4358,
      "Ah": 4359,
      "Like": 4360,
      "bott": 4361,
      "pen": 4362,
      "wing": 4363,
      "writ": 4364,
      "##vest": 4365,
      "##urder": 4366,
      "intelligence": 4367,
      "Hungary": 4368,
      "Human": 4369,
      "Oct": 4370,
      "##itness": 4371,
      "forec": 4372,
      "stem": 4373,
      "##aints": 4374,
      "trouble": 4375,
      "otherwise": 4376,
      "positions": 4377,
      "Ang": 4378,
      "phil": 4379,
      "choose": 4380,
      "mission": 4381,
      "rout": 4382,
      "sen": 4383,
      "##ias": 4384,
      "closed": 4385,
      "advance": 4386,
      "drive": 4387,
      "occur": 4388,
      "Sen": 4389,
      "cast": 4390,
      "Then": 4391,
      "whatever": 4392,
      "added": 4393,
      "standing": 4394,
      "referendum": 4395,
      "Musharraf": 4396,
      "Kim": 4397,
      "ties": 4398,
      "##ibilities": 4399,
      "nowadays": 4400,
      "rulers": 4401,
      "profit": 4402,
      "practical": 4403,
      "privatization": 4404,
      "Aug": 4405,
      "Cy": 4406,
      "Dutch": 4407,
      "defined": 4408,
      "collaps": 4409,
      "experts": 4410,
      "purpose": 4411,
      "Ne": 4412,
      "lit": 4413,
      "restruct": 4414,
      "cancer": 4415,
      "marked": 4416,
      "fundament": 4417,
      "surprise": 4418,
      "uncertainty": 4419,
      "enterprises": 4420,
      "October": 4421,
      "Sing": 4422,
      "amp": 4423,
      "cel": 4424,
      "##itz": 4425,
      "settlement": 4426,
      "twenty": 4427,
      "criticism": 4428,
      "August": 4429,
      "lines": 4430,
      "murder": 4431,
      "##mad": 4432,
      "toler": 4433,
      "models": 4434,
      "whereas": 4435,
      "kept": 4436,
      "precisely": 4437,
      "occurred": 4438,
      "Venezuela": 4439,
      "Cal": 4440,
      "ut": 4441,
      "resolution": 4442,
      "symp": 4443,
      "##ewise": 4444,
      "importantly": 4445,
      "condition": 4446,
      "##ebr": 4447,
      "##resp": 4448,
      "Fat": 4449,
      "pension": 4450,
      "##ook": 4451,
      "tough": 4452,
      "strik": 4453,
      "lessons": 4454,
      "suffer": 4455,
      "Kingdom": 4456,
      "Colombia": 4457,
      "hom": 4458,
      "##ph": 4459,
      "##aling": 4460,
      "##itation": 4461,
      "##aks": 4462,
      "resistance": 4463,
      "introduc": 4464,
      "arch": 4465,
      "quot": 4466,
      "##ieth": 4467,
      "votes": 4468,
      "faced": 4469,
      "technological": 4470,
      "establishment": 4471,
      "Lik": 4472,
      "Paul": 4473,
      "conce": 4474,
      "training": 4475,
      "unity": 4476,
      "unions": 4477,
      "incomes": 4478,
      "someone": 4479,
      "transport": 4480,
      "emerged": 4481,
      "bringing": 4482,
      "receive": 4483,
      "CO2": 4484,
      "Cypr": 4485,
      "Vlad": 4486,
      "##isf": 4487,
      "##odies": 4488,
      "interp": 4489,
      "bankers": 4490,
      "immigrants": 4491,
      "strategies": 4492,
      "legislation": 4493,
      "##irth": 4494,
      "##ails": 4495,
      "absol": 4496,
      "commitments": 4497,
      "territory": 4498,
      "billions": 4499,
      "ment": 4500,
      "mere": 4501,
      "##erred": 4502,
      "includes": 4503,
      "civilian": 4504,
      "hopes": 4505,
      "promoting": 4506,
      "virtually": 4507,
      "revers": 4508,
      "stagn": 4509,
      "stress": 4510,
      "parad": 4511,
      "##cedented": 4512,
      "easier": 4513,
      "green": 4514,
      "method": 4515,
      "##met": 4516,
      "##semb": 4517,
      "unique": 4518,
      "##ancell": 4519,
      "opponents": 4520,
      "obst": 4521,
      "significantly": 4522,
      "electricity": 4523,
      "unprecedented": 4524,
      "Ken": 4525,
      "##ped": 4526,
      "exact": 4527,
      "relev": 4528,
      "neighbor": 4529,
      "manufacturing": 4530,
      "securities": 4531,
      "deflation": 4532,
      "celebr": 4533,
      "Su": 4534,
      "tim": 4535,
      "tight": 4536,
      "##yal": 4537,
      "##cu": 4538,
      "##RID": 4539,
      "##emper": 4540,
      "remov": 4541,
      "quant": 4542,
      "board": 4543,
      "combination": 4544,
      "contribute": 4545,
      "calc": 4546,
      "Boliv": 4547,
      "Viet": 4548,
      "hun": 4549,
      "##of": 4550,
      "newsp": 4551,
      "decis": 4552,
      "perfect": 4553,
      "conference": 4554,
      "modest": 4555,
      "understood": 4556,
      "speed": 4557,
      "reported": 4558,
      "fixed": 4559,
      "1930": 4560,
      "nom": 4561,
      "##roc": 4562,
      "enforce": 4563,
      "attempts": 4564,
      "brain": 4565,
      "##riers": 4566,
      "teach": 4567,
      "dramatically": 4568,
      "heavy": 4569,
      "soldiers": 4570,
      "Sweden": 4571,
      "Kyoto": 4572,
      "Dar": 4573,
      "HIV": 4574,
      "Mah": 4575,
      "cha": 4576,
      "scar": 4577,
      "debts": 4578,
      "doesn": 4579,
      "funding": 4580,
      "restore": 4581,
      "volat": 4582,
      "rival": 4583,
      "##bi": 4584,
      "##uels": 4585,
      "legacy": 4586,
      "earth": 4587,
      "immigration": 4588,
      "regulations": 4589,
      "populations": 4590,
      "Romania": 4591,
      "latest": 4592,
      "##light": 4593,
      "1991": 4594,
      "ideological": 4595,
      "profound": 4596,
      "studies": 4597,
      "represents": 4598,
      "choices": 4599,
      "13": 4600,
      "Mean": 4601,
      "Rights": 4602,
      "bill": 4603,
      "tempt": 4604,
      "##itably": 4605,
      "ideology": 4606,
      "condem": 4607,
      "raising": 4608,
      "universities": 4609,
      "sharply": 4610,
      "superv": 4611,
      "adapt": 4612,
      "Nobel": 4613,
      "Nic": 4614,
      "##vez": 4615,
      "##ibr": 4616,
      "Chá": 4617,
      "##race": 4618,
      "interv": 4619,
      "Polish": 4620,
      "Jewish": 4621,
      "##ancellor": 4622,
      "rig": 4623,
      "tensions": 4624,
      "##ario": 4625,
      "reward": 4626,
      "##illed": 4627,
      "##ground": 4628,
      "nationalist": 4629,
      "backed": 4630,
      "possibly": 4631,
      "entirely": 4632,
      "moving": 4633,
      "enemy": 4634,
      "proliferation": 4635,
      "Chávez": 4636,
      "bur": 4637,
      "##aying": 4638,
      "exists": 4639,
      "##aily": 4640,
      "accum": 4641,
      "opposed": 4642,
      "productive": 4643,
      "estimated": 4644,
      "temper": 4645,
      "zero": 4646,
      "shr": 4647,
      "preced": 4648,
      "transf": 4649,
      "resulting": 4650,
      "recognition": 4651,
      "holding": 4652,
      "reaching": 4653,
      "undermine": 4654,
      "happens": 4655,
      "criminal": 4656,
      "Fatah": 4657,
      "Hu": 4658,
      "die": 4659,
      "lend": 4660,
      "ple": 4661,
      "wider": 4662,
      "##ring": 4663,
      "##cy": 4664,
      "##pan": 4665,
      "##SE": 4666,
      "##ica": 4667,
      "conver": 4668,
      "orient": 4669,
      "remind": 4670,
      "realize": 4671,
      "downturn": 4672,
      "carry": 4673,
      "Atlantic": 4674,
      "determine": 4675,
      "proposals": 4676,
      "mistake": 4677,
      "cheap": 4678,
      "mechanisms": 4679,
      "Berlin": 4680,
      "distribution": 4681,
      "Vladim": 4682,
      "Aust": 4683,
      "July": 4684,
      "##ana": 4685,
      "University": 4686,
      "voting": 4687,
      "deter": 4688,
      "cutting": 4689,
      "showed": 4690,
      "experienced": 4691,
      "survive": 4692,
      "complete": 4693,
      "##atures": 4694,
      "##orial": 4695,
      "weight": 4696,
      "overcome": 4697,
      "image": 4698,
      "persist": 4699,
      "obser": 4700,
      "depression": 4701,
      "Depression": 4702,
      "##MBRID": 4703,
      "CAMBRID": 4704,
      "obstac": 4705,
      "Vietnam": 4706,
      "CAMBRIDGE": 4707,
      "WTO": 4708,
      "gained": 4709,
      "witness": 4710,
      "##iny": 4711,
      "exceed": 4712,
      "alloc": 4713,
      "implies": 4714,
      "disord": 4715,
      "grand": 4716,
      "schem": 4717,
      "summer": 4718,
      "objective": 4719,
      "imperial": 4720,
      "Kar": 4721,
      "Mark": 4722,
      "You": 4723,
      "tort": 4724,
      "underlying": 4725,
      "brut": 4726,
      "##airman": 4727,
      "suffered": 4728,
      "malaria": 4729,
      "telev": 4730,
      "ownership": 4731,
      "perceived": 4732,
      "Meanwhile": 4733,
      "Vladimir": 4734,
      "Naz": 4735,
      "tack": 4736,
      "agg": 4737,
      "confir": 4738,
      "taxpay": 4739,
      "deeper": 4740,
      "deval": 4741,
      "extremely": 4742,
      "friend": 4743,
      "ec": 4744,
      "fil": 4745,
      "temporary": 4746,
      "##ores": 4747,
      "leaving": 4748,
      "regular": 4749,
      "supplies": 4750,
      "retire": 4751,
      "allowing": 4752,
      "colle": 4753,
      "dependent": 4754,
      "conventional": 4755,
      "##mar": 4756,
      "##iagn": 4757,
      "economically": 4758,
      "capable": 4759,
      "manip": 4760,
      "inspir": 4761,
      "room": 4762,
      "##aust": 4763,
      "##off": 4764,
      "##uations": 4765,
      "##urt": 4766,
      "analy": 4767,
      "acad": 4768,
      "##ode": 4769,
      "outs": 4770,
      "invasion": 4771,
      "##ailed": 4772,
      "review": 4773,
      "threatened": 4774,
      "solve": 4775,
      "dealing": 4776,
      "explan": 4777,
      "skept": 4778,
      "##enhouse": 4779,
      "physical": 4780,
      "imagine": 4781,
      "none": 4782,
      "ver": 4783,
      "##oples": 4784,
      "enab": 4785,
      "intens": 4786,
      "costly": 4787,
      "viable": 4788,
      "proportion": 4789,
      "organized": 4790,
      "potentially": 4791,
      "shareholders": 4792,
      "Reg": 4793,
      "Sunn": 4794,
      "losing": 4795,
      "##20": 4796,
      "##aration": 4797,
      "adequ": 4798,
      "evolution": 4799,
      "##eping": 4800,
      "##erved": 4801,
      "discrimin": 4802,
      "equally": 4803,
      "keeping": 4804,
      "Democrats": 4805,
      "mortgage": 4806,
      "scenario": 4807,
      "homes": 4808,
      "##uild": 4809,
      "##enko": 4810,
      "trip": 4811,
      "Chirac": 4812,
      "proved": 4813,
      "starting": 4814,
      "broader": 4815,
      "twentieth": 4816,
      "restrictions": 4817,
      "cycle": 4818,
      "managers": 4819,
      "fash": 4820,
      "gives": 4821,
      "hosp": 4822,
      "moun": 4823,
      "saying": 4824,
      "greenhouse": 4825,
      "package": 4826,
      "Apr": 4827,
      "Mer": 4828,
      "Yug": 4829,
      "##rote": 4830,
      "Chancellor": 4831,
      "##astrop": 4832,
      "centuries": 4833,
      "failures": 4834,
      "##idden": 4835,
      "Polic": 4836,
      "Any": 4837,
      "True": 4838,
      "enemies": 4839,
      "analysis": 4840,
      "Defense": 4841,
      "Bosnia": 4842,
      "##works": 4843,
      "Austr": 4844,
      "Go": 4845,
      "Rather": 4846,
      "mor": 4847,
      "##acing": 4848,
      "accession": 4849,
      "initiatives": 4850,
      "immediately": 4851,
      "mobil": 4852,
      "April": 4853,
      "fate": 4854,
      "sac": 4855,
      "##edge": 4856,
      "##oslav": 4857,
      "enable": 4858,
      "charge": 4859,
      "developments": 4860,
      "signs": 4861,
      "signed": 4862,
      "necessarily": 4863,
      "generations": 4864,
      "network": 4865,
      "''": 4866,
      "House": 4867,
      "Hait": 4868,
      "fif": 4869,
      "feed": 4870,
      "##ih": 4871,
      "##alin": 4872,
      "partner": 4873,
      "desper": 4874,
      "contributed": 4875,
      "supposedly": 4876,
      "computer": 4877,
      "Gulf": 4878,
      "Austral": 4879,
      "Hol": 4880,
      "wrote": 4881,
      "tools": 4882,
      "##eli": 4883,
      "ongoing": 4884,
      "contain": 4885,
      "Until": 4886,
      "##inking": 4887,
      "combat": 4888,
      "devast": 4889,
      "linked": 4890,
      "extraord": 4891,
      "dynamic": 4892,
      "comprehensive": 4893,
      "philos": 4894,
      "UK": 4895,
      "diagn": 4896,
      "felt": 4897,
      "##like": 4898,
      "##oles": 4899,
      "economist": 4900,
      "contract": 4901,
      "depos": 4902,
      "emerge": 4903,
      "pressures": 4904,
      "improving": 4905,
      "multi": 4906,
      "pushed": 4907,
      "resolve": 4908,
      "cells": 4909,
      "Cuba": 4910,
      "Yugoslav": 4911,
      "70": 4912,
      "Mc": 4913,
      "mention": 4914,
      "##ao": 4915,
      "##istics": 4916,
      "relief": 4917,
      "elites": 4918,
      "supporters": 4919,
      "humanity": 4920,
      "appeared": 4921,
      "treated": 4922,
      "historic": 4923,
      "origin": 4924,
      "eyes": 4925,
      "catastrop": 4926,
      "southern": 4927,
      "Burma": 4928,
      "arrangements": 4929,
      "restructuring": 4930,
      "dimin": 4931,
      "magn": 4932,
      "##ym": 4933,
      "##coming": 4934,
      "##aded": 4935,
      "proc": 4936,
      "sea": 4937,
      "defin": 4938,
      "scr": 4939,
      "estate": 4940,
      "formal": 4941,
      "##reme": 4942,
      "slight": 4943,
      "grew": 4944,
      "sales": 4945,
      "brok": 4946,
      "figure": 4947,
      "reconcil": 4948,
      "##standing": 4949,
      "Lula": 4950,
      "pace": 4951,
      "race": 4952,
      "##iar": 4953,
      "reaction": 4954,
      "uncon": 4955,
      "seven": 4956,
      "transfer": 4957,
      "generate": 4958,
      "dominated": 4959,
      "moved": 4960,
      "borrowing": 4961,
      "##orate": 4962,
      "##tered": 4963,
      "constant": 4964,
      "resource": 4965,
      "obtain": 4966,
      "paying": 4967,
      "Abb": 4968,
      "Peace": 4969,
      "irre": 4970,
      "exception": 4971,
      "remarkable": 4972,
      "##mosp": 4973,
      "Inter": 4974,
      "##loyed": 4975,
      "ruled": 4976,
      "existence": 4977,
      "maintaining": 4978,
      "heavily": 4979,
      "skills": 4980,
      "Likewise": 4981,
      "21": 4982,
      "Cor": 4983,
      "Dav": 4984,
      "##fort": 4985,
      "##outs": 4986,
      "reports": 4987,
      "humanitarian": 4988,
      "liber": 4989,
      "passed": 4990,
      "Adm": 4991,
      "##ipped": 4992,
      "Ear": 4993,
      "Pact": 4994,
      "iron": 4995,
      "##rid": 4996,
      "##icip": 4997,
      "exam": 4998,
      "##stitute": 4999
    }
  }
}